{
  "version": "1.0",
  "truncation": null,
  "padding": null,
  "added_tokens": [
    {
      "id": 0,
      "content": "<|endoftext|>",
      "single_word": false,
      "lstrip": false,
      "rstrip": false,
      "normalized": false,
      "special": true
    },
    {
      "id": 1,
      "content": "<|padding|>",
      "single_word": false,
      "lstrip": false,
      "rstrip": false,
      "normalized": false,
      "special": true
    }
  ],
  "normalizer": null,
  "pre_tokenizer": {
    "type": "ByteLevel",
    "add_prefix_space": false,
    "trim_offsets": true,
    "use_regex": true
  },
  "post_processor": null,
  "decoder": {
    "type": "ByteLevel",
    "add_prefix_space": true,
    "trim_offsets": true,
    "use_regex": true
  },
  "model": {
    "type": "BPE",
    "dropout": null,
    "unk_token": null,
    "continuing_subword_prefix": null,
    "end_of_word_suffix": null,
    "fuse_unk": false,
    "byte_fallback": false,
    "ignore_merges": false,
    "vocab": {
      "<|endoftext|>": 0,
      "<|padding|>": 1,
      "!": 2,
      "\"": 3,
      "#": 4,
      "$": 5,
      "%": 6,
      "&": 7,
      "'": 8,
      "(": 9,
      ")": 10,
      "*": 11,
      "+": 12,
      ",": 13,
      "-": 14,
      ".": 15,
      "/": 16,
      "0": 17,
      "1": 18,
      "2": 19,
      "3": 20,
      "4": 21,
      "5": 22,
      "6": 23,
      "7": 24,
      "8": 25,
      "9": 26,
      ":": 27,
      ";": 28,
      "<": 29,
      "=": 30,
      ">": 31,
      "?": 32,
      "@": 33,
      "A": 34,
      "B": 35,
      "C": 36,
      "D": 37,
      "E": 38,
      "F": 39,
      "G": 40,
      "H": 41,
      "I": 42,
      "J": 43,
      "K": 44,
      "L": 45,
      "M": 46,
      "N": 47,
      "O": 48,
      "P": 49,
      "Q": 50,
      "R": 51,
      "S": 52,
      "T": 53,
      "U": 54,
      "V": 55,
      "W": 56,
      "X": 57,
      "Y": 58,
      "Z": 59,
      "[": 60,
      "\\": 61,
      "]": 62,
      "^": 63,
      "_": 64,
      "`": 65,
      "a": 66,
      "b": 67,
      "c": 68,
      "d": 69,
      "e": 70,
      "f": 71,
      "g": 72,
      "h": 73,
      "i": 74,
      "j": 75,
      "k": 76,
      "l": 77,
      "m": 78,
      "n": 79,
      "o": 80,
      "p": 81,
      "q": 82,
      "r": 83,
      "s": 84,
      "t": 85,
      "u": 86,
      "v": 87,
      "w": 88,
      "x": 89,
      "y": 90,
      "z": 91,
      "{": 92,
      "|": 93,
      "}": 94,
      "~": 95,
      "¡": 96,
      "¢": 97,
      "£": 98,
      "¤": 99,
      "¥": 100,
      "¦": 101,
      "§": 102,
      "¨": 103,
      "©": 104,
      "ª": 105,
      "«": 106,
      "¬": 107,
      "®": 108,
      "¯": 109,
      "°": 110,
      "±": 111,
      "²": 112,
      "³": 113,
      "´": 114,
      "µ": 115,
      "¶": 116,
      "·": 117,
      "¸": 118,
      "¹": 119,
      "º": 120,
      "»": 121,
      "¼": 122,
      "½": 123,
      "¾": 124,
      "¿": 125,
      "À": 126,
      "Á": 127,
      "Â": 128,
      "Ã": 129,
      "Ä": 130,
      "Å": 131,
      "Æ": 132,
      "Ç": 133,
      "È": 134,
      "É": 135,
      "Ê": 136,
      "Ë": 137,
      "Ì": 138,
      "Í": 139,
      "Î": 140,
      "Ï": 141,
      "Ð": 142,
      "Ñ": 143,
      "Ò": 144,
      "Ó": 145,
      "Ô": 146,
      "Õ": 147,
      "Ö": 148,
      "×": 149,
      "Ø": 150,
      "Ù": 151,
      "Ú": 152,
      "Û": 153,
      "Ü": 154,
      "Ý": 155,
      "Þ": 156,
      "ß": 157,
      "à": 158,
      "á": 159,
      "â": 160,
      "ã": 161,
      "ä": 162,
      "å": 163,
      "æ": 164,
      "ç": 165,
      "è": 166,
      "é": 167,
      "ê": 168,
      "ë": 169,
      "ì": 170,
      "í": 171,
      "î": 172,
      "ï": 173,
      "ð": 174,
      "ñ": 175,
      "ò": 176,
      "ó": 177,
      "ô": 178,
      "õ": 179,
      "ö": 180,
      "÷": 181,
      "ø": 182,
      "ù": 183,
      "ú": 184,
      "û": 185,
      "ü": 186,
      "ý": 187,
      "þ": 188,
      "ÿ": 189,
      "Ā": 190,
      "ā": 191,
      "Ă": 192,
      "ă": 193,
      "Ą": 194,
      "ą": 195,
      "Ć": 196,
      "ć": 197,
      "Ĉ": 198,
      "ĉ": 199,
      "Ċ": 200,
      "ċ": 201,
      "Č": 202,
      "č": 203,
      "Ď": 204,
      "ď": 205,
      "Đ": 206,
      "đ": 207,
      "Ē": 208,
      "ē": 209,
      "Ĕ": 210,
      "ĕ": 211,
      "Ė": 212,
      "ė": 213,
      "Ę": 214,
      "ę": 215,
      "Ě": 216,
      "ě": 217,
      "Ĝ": 218,
      "ĝ": 219,
      "Ğ": 220,
      "ğ": 221,
      "Ġ": 222,
      "ġ": 223,
      "Ģ": 224,
      "ģ": 225,
      "Ĥ": 226,
      "ĥ": 227,
      "Ħ": 228,
      "ħ": 229,
      "Ĩ": 230,
      "ĩ": 231,
      "Ī": 232,
      "ī": 233,
      "Ĭ": 234,
      "ĭ": 235,
      "Į": 236,
      "į": 237,
      "İ": 238,
      "ı": 239,
      "Ĳ": 240,
      "ĳ": 241,
      "Ĵ": 242,
      "ĵ": 243,
      "Ķ": 244,
      "ķ": 245,
      "ĸ": 246,
      "Ĺ": 247,
      "ĺ": 248,
      "Ļ": 249,
      "ļ": 250,
      "Ľ": 251,
      "ľ": 252,
      "Ŀ": 253,
      "ŀ": 254,
      "Ł": 255,
      "ł": 256,
      "Ń": 257,
      "Ġt": 258,
      "Ġa": 259,
      "he": 260,
      "in": 261,
      "re": 262,
      "on": 263,
      "Ġthe": 264,
      "ĠĠ": 265,
      "er": 266,
      "at": 267,
      "Ġs": 268,
      "Ġo": 269,
      "Ġc": 270,
      "en": 271,
      "es": 272,
      "is": 273,
      "Ġw": 274,
      "it": 275,
      "nd": 276,
      "or": 277,
      "al": 278,
      "Ġp": 279,
      "Ġf": 280,
      "an": 281,
      "Ġof": 282,
      "Ġb": 283,
      "ing": 284,
      "ed": 285,
      "Ġin": 286,
      "ar": 287,
      "Ġm": 288,
      "ion": 289,
      "ou": 290,
      "Ġd": 291,
      "ic": 292,
      "Ġto": 293,
      "Ġand": 294,
      "le": 295,
      "ro": 296,
      "as": 297,
      "ct": 298,
      "ĠĠĠĠ": 299,
      "ent": 300,
      "Ġth": 301,
      "Ġe": 302,
      "Ġh": 303,
      "Ġre": 304,
      "Ġn": 305,
      "ve": 306,
      "st": 307,
      "Ġl": 308,
      "Ġis": 309,
      "om": 310,
      "il": 311,
      "et": 312,
      "ol": 313,
      "ĠT": 314,
      "se": 315,
      "im": 316,
      "Ġg": 317,
      "ly": 318,
      "ra": 319,
      "ation": 320,
      "ce": 321,
      "ow": 322,
      "ur": 323,
      "Ġbe": 324,
      "ut": 325,
      "id": 326,
      "âĢ": 327,
      "ot": 328,
      "ig": 329,
      "Ġu": 330,
      "Ġfor": 331,
      "ch": 332,
      "Ġst": 333,
      "ĠĠĠ": 334,
      "ul": 335,
      "ĠA": 336,
      "Ġthat": 337,
      "Ġon": 338,
      "ver": 339,
      "Ġy": 340,
      "am": 341,
      "ir": 342,
      "ĠS": 343,
      "if": 344,
      "ĠI": 345,
      "um": 346,
      "Ġ1": 347,
      "Ġcon": 348,
      "el": 349,
      "Ġare": 350,
      "Ġ(": 351,
      "Ġas": 352,
      "Ġan": 353,
      "ay": 354,
      "ĠC": 355,
      "ith": 356,
      "Ġpro": 357,
      "her": 358,
      "Ġit": 359,
      "qu": 360,
      "Ġor": 361,
      "ad": 362,
      "ge": 363,
      "od": 364,
      "ĠThe": 365,
      "Ġwith": 366,
      "ter": 367,
      "Ġyou": 368,
      "Ġal": 369,
      "ate": 370,
      "Ġ=": 371,
      "Ġwh": 372,
      "Ġv": 373,
      "ist": 374,
      "Ġex": 375,
      "Ġde": 376,
      "th": 377,
      "ĊĠĠĠĠ": 378,
      "ers": 379,
      "ect": 380,
      "ab": 381,
      "res": 382,
      "ment": 383,
      "iv": 384,
      "op": 385,
      "Ġwe": 386,
      "ĠP": 387,
      "ies": 388,
      "os": 389,
      "us": 390,
      "Ġcom": 391,
      "nt": 392,
      "ive": 393,
      "ĠM": 394,
      "ess": 395,
      "Ġ2": 396,
      "est": 397,
      "ity": 398,
      "ill": 399,
      "em": 400,
      "ore": 401,
      "Ġcan": 402,
      "Ġsu": 403,
      "ac": 404,
      "rom": 405,
      "Ġby": 406,
      "igh": 407,
      "Ġr": 408,
      "ke": 409,
      "Ġha": 410,
      "Ġch": 411,
      "Ġhe": 412,
      "ant": 413,
      "pp": 414,
      "ud": 415,
      "ĠW": 416,
      "ĠB": 417,
      "ain": 418,
      "ĊĠĠĠ": 419,
      "Ġat": 420,
      "un": 421,
      "--": 422,
      "ld": 423,
      "ĠE": 424,
      "Ġle": 425,
      "ial": 426,
      "oc": 427,
      "Ġne": 428,
      "and": 429,
      "Ġfrom": 430,
      "âĢĻ": 431,
      "Ġse": 432,
      "ort": 433,
      "Ġthis": 434,
      "ure": 435,
      "ĠF": 436,
      "ĠH": 437,
      "ction": 438,
      "pl": 439,
      "pe": 440,
      "ri": 441,
      "ical": 442,
      "ĠD": 443,
      "ĠR": 444,
      "art": 445,
      "ight": 446,
      "Ġen": 447,
      "ere": 448,
      "00": 449,
      "Ġnot": 450,
      "Ġhave": 451,
      "pt": 452,
      "all": 453,
      "Ġsh": 454,
      "Ġint": 455,
      "og": 456,
      "ĠN": 457,
      "rou": 458,
      "Ġwas": 459,
      "Ġus": 460,
      "per": 461,
      "Ġab": 462,
      "ine": 463,
      "Ġwor": 464,
      "ĠâĢ": 465,
      "ĠL": 466,
      "ich": 467,
      "Ġpl": 468,
      "ag": 469,
      "ĊĠĠĠĠĠĠĠ": 470,
      "int": 471,
      "ther": 472,
      "ult": 473,
      "iz": 474,
      "ple": 475,
      "Ġim": 476,
      "The": 477,
      "##": 478,
      "ue": 479,
      "ions": 480,
      "Ġk": 481,
      "act": 482,
      "du": 483,
      "our": 484,
      "ome": 485,
      "out": 486,
      "ĠG": 487,
      "ould": 488,
      "gh": 489,
      "age": 490,
      "ber": 491,
      "ost": 492,
      "Ġtheir": 493,
      "Ġwhe": 494,
      "ated": 495,
      "ard": 496,
      "ide": 497,
      "ans": 498,
      "ations": 499,
      "ell": 500,
      "end": 501,
      "Ġwhich": 502,
      "Ġres": 503,
      "cl": 504,
      "ass": 505,
      "ents": 506,
      "Ġ\"": 507,
      "ff": 508,
      "ach": 509,
      "vel": 510,
      "are": 511,
      "ak": 512,
      "ind": 513,
      "ĠO": 514,
      "ust": 515,
      "Ġwill": 516,
      "Ġcont": 517,
      "Ġnum": 518,
      "Ġthey": 519,
      "Ġall": 520,
      "ĠTh": 521,
      "so": 522,
      "ous": 523,
      "Ġad": 524,
      "ble": 525,
      "Ġ3": 526,
      "orm": 527,
      "ap": 528,
      "Ġme": 529,
      "ast": 530,
      "ear": 531,
      "ĠIn": 532,
      "ame": 533,
      "Ġcl": 534,
      "ater": 535,
      "Ġif": 536,
      "ance": 537,
      "able": 538,
      "cc": 539,
      "Ġdo": 540,
      "Ġdis": 541,
      "ary": 542,
      "ĊĠĠĠĠĠĠĠĠ": 543,
      "ong": 544,
      "Ġyour": 545,
      "ks": 546,
      "urn": 547,
      "ence": 548,
      "ual": 549,
      "Ġother": 550,
      "Ġone": 551,
      "Ġmore": 552,
      "ang": 553,
      "ex": 554,
      "ĠU": 555,
      "Ġar": 556,
      "Ġhas": 557,
      "ild": 558,
      "ire": 559,
      "ru": 560,
      "ime": 561,
      "iff": 562,
      "ip": 563,
      "ase": 564,
      "ie": 565,
      "ep": 566,
      "Ġqu": 567,
      "Ġun": 568,
      "ition": 569,
      "Ġcomp": 570,
      "Ġstud": 571,
      "ces": 572,
      "ign": 573,
      "ood": 574,
      "Ġper": 575,
      "Ġalso": 576,
      "ace": 577,
      "Ġimp": 578,
      "----": 579,
      "ress": 580,
      "Ġ-": 581,
      "Ġtr": 582,
      ").": 583,
      "low": 584,
      "Ġman": 585,
      "Ġj": 586,
      "ake": 587,
      "Ġbut": 588,
      "con": 589,
      "rit": 590,
      "Ġdiff": 591,
      "ia": 592,
      "Ġ0": 593,
      "Ġ*": 594,
      "Ġsp": 595,
      "ound": 596,
      "ree": 597,
      "ric": 598,
      "Ġout": 599,
      "Ġso": 600,
      "Ġ{": 601,
      "Ġsy": 602,
      "oo": 603,
      "ount": 604,
      "ens": 605,
      "'s": 606,
      "Ġpart": 607,
      "Ġapp": 608,
      "av": 609,
      "ack": 610,
      "one": 611,
      "now": 612,
      "ĠJ": 613,
      "ors": 614,
      "ory": 615,
      "Ġro": 616,
      "ci": 617,
      "Ġpre": 618,
      "Ġtw": 619,
      "au": 620,
      "Ġ+": 621,
      "ph": 622,
      "ord": 623,
      "Ġhow": 624,
      "Ġwere": 625,
      "Ġabout": 626,
      "..": 627,
      "ms": 628,
      "Ġev": 629,
      "Ġspe": 630,
      "very": 631,
      "reat": 632,
      "Ġinf": 633,
      "ile": 634,
      "Ġte": 635,
      "ĠThis": 636,
      "nder": 637,
      "ĠSt": 638,
      "âĢĿ": 639,
      "ice": 640,
      "ject": 641,
      "ike": 642,
      "Ġra": 643,
      "Ġthem": 644,
      "Ġbet": 645,
      "Ġ4": 646,
      "ry": 647,
      "ub": 648,
      "ates": 649,
      "ĠIt": 650,
      "ath": 651,
      "Ġinto": 652,
      "Âł": 653,
      "Ġtwo": 654,
      "turn": 655,
      "Ġpr": 656,
      "ose": 657,
      "Ġbec": 658,
      "we": 659,
      "Ġcol": 660,
      "//": 661,
      "Ġcomm": 662,
      ");": 663,
      "Ġtime": 664,
      "Ġdiffere": 665,
      "ove": 666,
      "ite": 667,
      "Ġthan": 668,
      "Ġval": 669,
      "ari": 670,
      "Ġnumber": 671,
      "Ġwhen": 672,
      "Ġthese": 673,
      "Ġpo": 674,
      "Ġits": 675,
      "Ġthere": 676,
      "irst": 677,
      "Ġuse": 678,
      "lect": 679,
      "Ġup": 680,
      "les": 681,
      "rough": 682,
      "Ġ20": 683,
      "ays": 684,
      "Ġknow": 685,
      "Ġ5": 686,
      "ish": 687,
      "cre": 688,
      "Ġsome": 689,
      "__": 690,
      "Ġpe": 691,
      "Ġunder": 692,
      "ĠâĢľ": 693,
      "ics": 694,
      "Ġob": 695,
      "Ġequ": 696,
      "arn": 697,
      "ys": 698,
      "Ġfe": 699,
      "Ġform": 700,
      "ative": 701,
      "olog": 702,
      "clud": 703,
      "stem": 704,
      "Ġmay": 705,
      "Ġind": 706,
      "ities": 707,
      "Ġsuch": 708,
      "Ġ'": 709,
      "hat": 710,
      "ause": 711,
      "Ġtra": 712,
      "ange": 713,
      "ren": 714,
      "Ġ$": 715,
      "Ġhel": 716,
      "ds": 717,
      "ck": 718,
      "unction": 719,
      "ution": 720,
      "Ġused": 721,
      "**": 722,
      "),": 723,
      "Ġreturn": 724,
      "ĠV": 725,
      "ally": 726,
      "Ġgo": 727,
      "Ġrel": 728,
      "Ġover": 729,
      "ll": 730,
      "ings": 731,
      "Ġsol": 732,
      "cess": 733,
      "Ġem": 734,
      "Ġcons": 735,
      "ific": 736,
      "Ġinter": 737,
      "Ġnew": 738,
      "Ġx": 739,
      "ef": 740,
      "Ġlike": 741,
      "ĊĠĠĠĠĠĠĠĠĠĠĠ": 742,
      "Ġ19": 743,
      "ments": 744,
      "Ġact": 745,
      "ween": 746,
      "ons": 747,
      "te": 748,
      "Ġhelp": 749,
      "ail": 750,
      "ating": 751,
      "Ġwork": 752,
      "ough": 753,
      "vers": 754,
      "ople": 755,
      "Ġdef": 756,
      "Ġexp": 757,
      "Ġpos": 758,
      "Ġexam": 759,
      "Ġwhat": 760,
      "Ġwould": 761,
      "ĠK": 762,
      "Ġneed": 763,
      "Ġyear": 764,
      "row": 765,
      "):": 766,
      "Ġbetween": 767,
      "eth": 768,
      "Ġchild": 769,
      "Ġfirst": 770,
      "Ġgen": 771,
      "ular": 772,
      "erm": 773,
      "rib": 774,
      "Ġwho": 775,
      "als": 776,
      "Ġany": 777,
      "velop": 778,
      "Ġag": 779,
      "ĠCh": 780,
      "ffect": 781,
      "Ġthrough": 782,
      "Ġdes": 783,
      "sel": 784,
      "ook": 785,
      "Ġam": 786,
      "Ġeach": 787,
      "ib": 788,
      "In": 789,
      "Ġbl": 790,
      "ility": 791,
      "Ġour": 792,
      "Ġco": 793,
      "Ġdifferent": 794,
      "erv": 795,
      "Ġmost": 796,
      "ata": 797,
      "Ġlearn": 798,
      "ne": 799,
      "ĠY": 800,
      "Ġmany": 801,
      "Ġinclud": 802,
      "Ġph": 803,
      "round": 804,
      "Ġspec": 805,
      "Ġpeople": 806,
      "ft": 807,
      "Ġonly": 808,
      "Ġacc": 809,
      "Ġget": 810,
      "Ġsystem": 811,
      "Ġprodu": 812,
      "ĠĠĠĠĠĠĠĠ": 813,
      "oth": 814,
      "ext": 815,
      "ian": 816,
      "Ġrec": 817,
      "Ġsub": 818,
      "Ġvari": 819,
      "Ġass": 820,
      "ert": 821,
      "Ġgra": 822,
      "ced": 823,
      "Ġty": 824,
      "ov": 825,
      "ink": 826,
      "ise": 827,
      "lic": 828,
      "Ġ}": 829,
      "Ġ6": 830,
      "uring": 831,
      "red": 832,
      "Ġstr": 833,
      "Ġbeen": 834,
      "Ġdevelop": 835,
      "Ġadd": 836,
      "ures": 837,
      "ower": 838,
      "Ġrep": 839,
      "Ġpoint": 840,
      "Ġ\\": 841,
      "ize": 842,
      "hen": 843,
      "Ġsim": 844,
      "ob": 845,
      "Ġthen": 846,
      "its": 847,
      "Ġac": 848,
      "eg": 849,
      "Ġstudents": 850,
      "ract": 851,
      "Ġhis": 852,
      "Ġdi": 853,
      "Ġset": 854,
      "ĊĠ": 855,
      "eng": 856,
      "ĠâĢĵ": 857,
      "ode": 858,
      "Ġprov": 859,
      "Ġfl": 860,
      "Ġwhere": 861,
      "Ġfunction": 862,
      "Ġimport": 863,
      "mer": 864,
      "get": 865,
      "ible": 866,
      "tern": 867,
      "==": 868,
      "ram": 869,
      "Ġreg": 870,
      "Ġno": 871,
      "Ġsur": 872,
      "Ġsc": 873,
      "Ġcur": 874,
      "Ġwater": 875,
      "ational": 876,
      "Ġdist": 877,
      "hes": 878,
      "Ġpol": 879,
      "Ġ[": 880,
      "erg": 881,
      "Ġresult": 882,
      "Ċĉ": 883,
      "ful": 884,
      "fter": 885,
      "cept": 886,
      "()": 887,
      "Ġmat": 888,
      "ues": 889,
      "hed": 890,
      "Ġhad": 891,
      "Ġconst": 892,
      "ased": 893,
      "ten": 894,
      "Ġinv": 895,
      "bers": 896,
      "own": 897,
      "resent": 898,
      "Ġproble": 899,
      "ax": 900,
      "str": 901,
      "âĢ¢": 902,
      "form": 903,
      "ĠUn": 904,
      "put": 905,
      "stand": 906,
      "elf": 907,
      "ollow": 908,
      "Ġsm": 909,
      "Ġtrans": 910,
      "Ġrem": 911,
      "cul": 912,
      "ick": 913,
      "aw": 914,
      "Ġmod": 915,
      "iss": 916,
      "ps": 917,
      "Ġmake": 918,
      "Ġfind": 919,
      "ĠHow": 920,
      "ict": 921,
      "Ġi": 922,
      "cy": 923,
      "ines": 924,
      "Ġsame": 925,
      "Ġ10": 926,
      "Ġ<": 927,
      "ists": 928,
      "Ġcall": 929,
      "self": 930,
      "ss": 931,
      "ark": 932,
      "ever": 933,
      "ng": 934,
      "hem": 935,
      "Ġfact": 936,
      "--------": 937,
      "fore": 938,
      "Ġatt": 939,
      "ool": 940,
      "ins": 941,
      "ied": 942,
      "Ġgiv": 943,
      "Ġself": 944,
      "ruct": 945,
      "arch": 946,
      "Ġshould": 947,
      "Ġcould": 948,
      "Ġusing": 949,
      "Ġbecause": 950,
      "ural": 951,
      "Ġwrit": 952,
      "Ġdet": 953,
      "Ġoff": 954,
      "pr": 955,
      "der": 956,
      "Ġlar": 957,
      "Ġway": 958,
      "Ġsupp": 959,
      "ĊĊĠĠĠ": 960,
      "Ġright": 961,
      "Ġprocess": 962,
      "Ġcent": 963,
      "gan": 964,
      "Ġfollow": 965,
      "Ġclass": 966,
      "Ġ201": 967,
      "Ġpers": 968,
      "alth": 969,
      "Ġ7": 970,
      "ature": 971,
      "Ġ8": 972,
      "Ġexpl": 973,
      "Ġincre": 974,
      "Ġexample": 975,
      "Th": 976,
      "Ġcar": 977,
      "Ġdata": 978,
      "uch": 979,
      "imes": 980,
      "Ġbu": 981,
      "Ġsign": 982,
      "ivid": 983,
      "Ġvalue": 984,
      "Ġref": 985,
      "Ġwell": 986,
      "ting": 987,
      "ident": 988,
      "Ġgener": 989,
      "ade": 990,
      "Ġyears": 991,
      "ants": 992,
      "ually": 993,
      "other": 994,
      "Ġchar": 995,
      "Ġcor": 996,
      "ically": 997,
      "ered": 998,
      "Ġsoc": 999,
      "ism": 1000,
      "chn": 1001,
      "ĠIf": 1002,
      "Ġ#": 1003,
      "rent": 1004,
      "Ġhigh": 1005,
      "Ġdec": 1006,
      "20": 1007,
      "Ġjust": 1008,
      "Ġexper": 1009,
      "Ġke": 1010,
      "Ġcomple": 1011,
      "ew": 1012,
      "uc": 1013,
      "Ġend": 1014,
      "ited": 1015,
      "Ġquest": 1016,
      "Ġear": 1017,
      "ife": 1018,
      "Ġdisc": 1019,
      "\"\"": 1020,
      "Ġunderstand": 1021,
      "ases": 1022,
      "nce": 1023,
      "Ġinst": 1024,
      "Ġread": 1025,
      "Ġresp": 1026,
      "ix": 1027,
      "Ġfound": 1028,
      "000": 1029,
      "aking": 1030,
      "ious": 1031,
      "Ġlong": 1032,
      "Ġmin": 1033,
      "Ġsee": 1034,
      "ages": 1035,
      "Ġcount": 1036,
      "ts": 1037,
      "Ġimportant": 1038,
      "ty": 1039,
      "Ġsk": 1040,
      "Ġdoes": 1041,
      "Ġed": 1042,
      "ĠFor": 1043,
      "Ġboth": 1044,
      "Ġeffect": 1045,
      "Ġrese": 1046,
      "Ġext": 1047,
      "Ġpartic": 1048,
      "Ġhum": 1049,
      "ined": 1050,
      "ĠPro": 1051,
      "sw": 1052,
      "ray": 1053,
      "Ġcre": 1054,
      "ology": 1055,
      "ec": 1056,
      "meric": 1057,
      "Ġel": 1058,
      "ential": 1059,
      "Ġ9": 1060,
      "Ġline": 1061,
      "wn": 1062,
      "alcul": 1063,
      "###": 1064,
      "Ġevery": 1065,
      "val": 1066,
      "iel": 1067,
      "Ġworld": 1068,
      "Ġelect": 1069,
      "Ġele": 1070,
      "Ġchildren": 1071,
      "Ġdep": 1072,
      "ont": 1073,
      "iew": 1074,
      "ethod": 1075,
      "ator": 1076,
      "ĠWe": 1077,
      "ĠThey": 1078,
      "Ġsa": 1079,
      "Ġwhile": 1080,
      "Ġca": 1081,
      "Ġless": 1082,
      "Ġinform": 1083,
      "Ġsmall": 1084,
      "Ġgrou": 1085,
      "ily": 1086,
      "ward": 1087,
      "ets": 1088,
      "10": 1089,
      "Ġmeas": 1090,
      "Ġstart": 1091,
      "chool": 1092,
      "Ġvery": 1093,
      "iqu": 1094,
      "ĠAn": 1095,
      "Ġobject": 1096,
      "inal": 1097,
      "Ġafter": 1098,
      "ning": 1099,
      "iron": 1100,
      "ength": 1101,
      "Ġ18": 1102,
      "Ġcell": 1103,
      "Ġeven": 1104,
      "ctions": 1105,
      "ergy": 1106,
      "vent": 1107,
      "ĠAmeric": 1108,
      "par": 1109,
      "Ġmain": 1110,
      "com": 1111,
      "cial": 1112,
      "ized": 1113,
      "Ġcalled": 1114,
      "Ġtechn": 1115,
      "Ġdire": 1116,
      "ness": 1117,
      "Ġplan": 1118,
      "land": 1119,
      "ĠWhat": 1120,
      "Ġrequ": 1121,
      "Ġduring": 1122,
      "Ġ&": 1123,
      "Ġappro": 1124,
      "Ġpower": 1125,
      "ond": 1126,
      "ĠEx": 1127,
      "Ġtest": 1128,
      "ient": 1129,
      "cient": 1130,
      "Ġthree": 1131,
      "ection": 1132,
      "Ġshow": 1133,
      "ody": 1134,
      "cond": 1135,
      "ars": 1136,
      "Ġmuch": 1137,
      "ork": 1138,
      "ives": 1139,
      "imate": 1140,
      "Ġlevel": 1141,
      "cent": 1142,
      "Ġcommun": 1143,
      "read": 1144,
      "ices": 1145,
      "port": 1146,
      "ability": 1147,
      "akes": 1148,
      "old": 1149,
      "Ġlet": 1150,
      "Ġart": 1151,
      "Ġnumbers": 1152,
      "...": 1153,
      "ving": 1154,
      "ved": 1155,
      "itive": 1156,
      "de": 1157,
      "ĠCom": 1158,
      "ince": 1159,
      "ĠAl": 1160,
      "ĊĊ": 1161,
      "Ġent": 1162,
      "ĠĠĠĠĠĠĠ": 1163,
      "(\"": 1164,
      "Ġprint": 1165,
      "Ġposs": 1166,
      "led": 1167,
      "Ġins": 1168,
      "))": 1169,
      "Ġlead": 1170,
      "Ġactiv": 1171,
      "ety": 1172,
      "irc": 1173,
      "tle": 1174,
      "Ġgiven": 1175,
      "Ġloc": 1176,
      "Ġbeing": 1177,
      "Ġmy": 1178,
      "ĠAs": 1179,
      "ides": 1180,
      "Ġocc": 1181,
      "Ġtyp": 1182,
      "Ġmult": 1183,
      "Ġmon": 1184,
      "Ġmethod": 1185,
      "oy": 1186,
      "Ġcommon": 1187,
      "hip": 1188,
      "acter": 1189,
      "Ġperson": 1190,
      "Ġprog": 1191,
      "ale": 1192,
      "Ġhealth": 1193,
      "Ġpar": 1194,
      "Ġtem": 1195,
      "Ġsl": 1196,
      "ute": 1197,
      "Ġ:": 1198,
      "Ġ//": 1199,
      "St": 1200,
      "the": 1201,
      "Ġstate": 1202,
      "io": 1203,
      "Ġpat": 1204,
      "viron": 1205,
      "Ġthose": 1206,
      "Ġinformation": 1207,
      "ave": 1208,
      "ull": 1209,
      "Ġmade": 1210,
      "Ġmust": 1211,
      "ples": 1212,
      "arm": 1213,
      "This": 1214,
      "uss": 1215,
      "Ġ.": 1216,
      "Ġmem": 1217,
      "Ġlearning": 1218,
      "Ġlife": 1219,
      "Ġoften": 1220,
      "Ġmed": 1221,
      "Ġve": 1222,
      "Ġpop": 1223,
      "omet": 1224,
      "ivers": 1225,
      "Ġtake": 1226,
      "hers": 1227,
      "Ġenergy": 1228,
      "Ġplay": 1229,
      "atic": 1230,
      "gg": 1231,
      "Ġcurrent": 1232,
      "Ġlook": 1233,
      "ality": 1234,
      "Ġgrow": 1235,
      "Ġansw": 1236,
      "ock": 1237,
      "ublic": 1238,
      "Ġchange": 1239,
      "Ġconsid": 1240,
      "Ġaround": 1241,
      "ted": 1242,
      "oss": 1243,
      "ĠInd": 1244,
      "Ġproblem": 1245,
      "ĠThese": 1246,
      "ves": 1247,
      "ains": 1248,
      "ĠAr": 1249,
      "ead": 1250,
      "angu": 1251,
      "ional": 1252,
      "Ġthink": 1253,
      "Ġback": 1254,
      "Ġgl": 1255,
      "air": 1256,
      "ify": 1257,
      "Ġknown": 1258,
      "here": 1259,
      "Ġstudy": 1260,
      "Ġcontin": 1261,
      "What": 1262,
      "itions": 1263,
      "'t": 1264,
      "oid": 1265,
      "dition": 1266,
      "Ġdown": 1267,
      "Ġlist": 1268,
      "ern": 1269,
      "ĠQ": 1270,
      "\",": 1271,
      "',": 1272,
      "Ġaut": 1273,
      "Ġ/": 1274,
      "Ġz": 1275,
      "Ġown": 1276,
      "und": 1277,
      "to": 1278,
      "Ġhist": 1279,
      "ĠYou": 1280,
      "Ġ==": 1281,
      "Ġlit": 1282,
      "Ġ200": 1283,
      "Ġsym": 1284,
      "Ġcalcul": 1285,
      "Ġallow": 1286,
      "ividual": 1287,
      "vern": 1288,
      "Ġbeh": 1289,
      "Ġide": 1290,
      "('": 1291,
      "ross": 1292,
      "agn": 1293,
      "up": 1294,
      "aterial": 1295,
      "any": 1296,
      "Ġmet": 1297,
      "iod": 1298,
      "Ġmean": 1299,
      "ral": 1300,
      "Ġest": 1301,
      "ĠThere": 1302,
      "Ġorgan": 1303,
      "Ġpract": 1304,
      "ĠHe": 1305,
      "Ġbefore": 1306,
      "ather": 1307,
      "Ġmove": 1308,
      "Ġher": 1309,
      "rodu": 1310,
      "Ġshe": 1311,
      "ency": 1312,
      "Ġarea": 1313,
      "Ġhand": 1314,
      "ision": 1315,
      "Ġbr": 1316,
      "ield": 1317,
      "ected": 1318,
      "olution": 1319,
      "ters": 1320,
      "ĊĠĠĠĠĠĠĠĠĠĠĠĠĠĠĠ": 1321,
      "Ġenviron": 1322,
      "ier": 1323,
      "Ġagain": 1324,
      "Ġdid": 1325,
      "Ġeas": 1326,
      "Ġorder": 1327,
      "Ġwithin": 1328,
      "####": 1329,
      "19": 1330,
      "Ġfood": 1331,
      "oms": 1332,
      "Ġgood": 1333,
      "Ġindividual": 1334,
      "Ġbody": 1335,
      "raph": 1336,
      "Ġ|": 1337,
      "Ġland": 1338,
      "Ġ12": 1339,
      "Ġchang": 1340,
      "Ġredu": 1341,
      "Ġlarge": 1342,
      "Ġident": 1343,
      "Ġlight": 1344,
      "day": 1345,
      "Ġhy": 1346,
      "Ġschool": 1347,
      "hy": 1348,
      "ctor": 1349,
      "ills": 1350,
      "Ġhuman": 1351,
      "Ġav": 1352,
      "ources": 1353,
      "Ġconf": 1354,
      "Ġtype": 1355,
      "ĠCon": 1356,
      "Ġmaterial": 1357,
      "Ġsecond": 1358,
      "Ġmeans": 1359,
      "Ġtop": 1360,
      "ffic": 1361,
      "Ġfam": 1362,
      "Ġprot": 1363,
      "ateg": 1364,
      "Ġnow": 1365,
      "ulation": 1366,
      "Ġanal": 1367,
      "erest": 1368,
      "Ġfollowing": 1369,
      "Ġsum": 1370,
      "Ġvol": 1371,
      "Ġcase": 1372,
      "Ġgre": 1373,
      "Ġâ": 1374,
      "Ġter": 1375,
      "Ġmeasure": 1376,
      "Ġsupport": 1377,
      "Ġcaus": 1378,
      "face": 1379,
      "ization": 1380,
      "Ġwant": 1381,
      "Ġdesign": 1382,
      "Ġtoo": 1383,
      "Ġgu": 1384,
      "ences": 1385,
      "Ġlangu": 1386,
      "els": 1387,
      "Ġoccur": 1388,
      "Ġanother": 1389,
      "ared": 1390,
      "ital": 1391,
      "Ġbas": 1392,
      "Ġeng": 1393,
      "Ġpass": 1394,
      "ner": 1395,
      "ination": 1396,
      "conom": 1397,
      "Ġbel": 1398,
      "Ġser": 1399,
      "Ġday": 1400,
      "ox": 1401,
      "ÂłÂł": 1402,
      "Ġdesc": 1403,
      "Ġresearch": 1404,
      "$$": 1405,
      "12": 1406,
      "Ġ15": 1407,
      "Ġsocial": 1408,
      "ug": 1409,
      "Ġstand": 1410,
      "app": 1411,
      "Ġ>": 1412,
      "ior": 1413,
      "Ġoper": 1414,
      "ury": 1415,
      "pos": 1416,
      "Ġcirc": 1417,
      "ole": 1418,
      "****": 1419,
      "Ġreal": 1420,
      "ired": 1421,
      "Ġincluding": 1422,
      "Ġexperi": 1423,
      "Ġcap": 1424,
      "vert": 1425,
      "ĠSe": 1426,
      "omen": 1427,
      "Ġdra": 1428,
      "Ġcontro": 1429,
      "ertain": 1430,
      "ished": 1431,
      "ĠHowever": 1432,
      "Ġdem": 1433,
      "Ġenvironment": 1434,
      "Ġrange": 1435,
      "ption": 1436,
      "Ġbuild": 1437,
      "lish": 1438,
      "Ġcle": 1439,
      "Ġadv": 1440,
      "aj": 1441,
      "Ġstruct": 1442,
      "ä¸": 1443,
      "ilar": 1444,
      "ven": 1445,
      "Ġphys": 1446,
      "Ġcult": 1447,
      "Ġthough": 1448,
      "Ġrad": 1449,
      "Ġsqu": 1450,
      "tain": 1451,
      "Ġmight": 1452,
      "Ġprob": 1453,
      "Ġinclude": 1454,
      "Ġpresent": 1455,
      "Ġopp": 1456,
      "print": 1457,
      "of": 1458,
      "ger": 1459,
      "Ġproper": 1460,
      "bs": 1461,
      "Ġeduc": 1462,
      "Ġop": 1463,
      "ĠSo": 1464,
      "cience": 1465,
      "ron": 1466,
      "for": 1467,
      "Ġinvol": 1468,
      "Ġanswer": 1469,
      "ids": 1470,
      "ental": 1471,
      "Ġgovern": 1472,
      "ample": 1473,
      "oint": 1474,
      "etic": 1475,
      "Ġproduct": 1476,
      "line": 1477,
      "ĠRe": 1478,
      "ense": 1479,
      "Ġdise": 1480,
      "Ġtreat": 1481,
      "Ġgroup": 1482,
      "Ġtimes": 1483,
      "Ġrepresent": 1484,
      "Ġwords": 1485,
      "cing": 1486,
      "Ġinterest": 1487,
      "ards": 1488,
      "ason": 1489,
      "Ġpossible": 1490,
      "sc": 1491,
      "Ġspecies": 1492,
      "Ġgreat": 1493,
      "ource": 1494,
      "Ġanim": 1495,
      "It": 1496,
      "gen": 1497,
      "ote": 1498,
      "oci": 1499,
      "Ġdevelopment": 1500,
      "arent": 1501,
      "Ġperiod": 1502,
      "ash": 1503,
      "Ġplace": 1504,
      "čĊ": 1505,
      "uro": 1506,
      "ape": 1507,
      "oun": 1508,
      "Ġvis": 1509,
      "____": 1510,
      "Ġinteg": 1511,
      "Ġdeterm": 1512,
      "ank": 1513,
      "Ġwithout": 1514,
      "11": 1515,
      "ĠEng": 1516,
      "verse": 1517,
      "rain": 1518,
      "ĠNew": 1519,
      "ĠEar": 1520,
      "ways": 1521,
      "ering": 1522,
      "Ġamount": 1523,
      "Ġquestion": 1524,
      "outh": 1525,
      "Ġstill": 1526,
      "Ġcour": 1527,
      "lu": 1528,
      "xt": 1529,
      "Ġ@": 1530,
      "ĠWhen": 1531,
      ".âĢĿ": 1532,
      "Ġbased": 1533,
      "ication": 1534,
      "Ġess": 1535,
      "Ġproblems": 1536,
      "Ġmulti": 1537,
      "ĠTo": 1538,
      "pect": 1539,
      "tt": 1540,
      "ration": 1541,
      "Ġpot": 1542,
      "Ġinc": 1543,
      "Ġleft": 1544,
      "Ġbre": 1545,
      "Ġtri": 1546,
      "Ġspace": 1547,
      "Ġfre": 1548,
      "Ġtemper": 1549,
      "Ġlim": 1550,
      "Ġaw": 1551,
      "ression": 1552,
      "Ġelse": 1553,
      "Ġang": 1554,
      "ĠBut": 1555,
      "itor": 1556,
      "ium": 1557,
      "me": 1558,
      "Ġaffect": 1559,
      "âĢĶ": 1560,
      "Ġmus": 1561,
      "Ġnat": 1562,
      "How": 1563,
      "Ġorig": 1564,
      "Ġequal": 1565,
      "Ġche": 1566,
      "num": 1567,
      "ope": 1568,
      "iversity": 1569,
      "Ġair": 1570,
      "ĠAd": 1571,
      "Ġer": 1572,
      "rect": 1573,
      "Ġable": 1574,
      "Ċĉĉ": 1575,
      "Ġcomput": 1576,
      "Ġhere": 1577,
      "Ġlast": 1578,
      "Ġaddition": 1579,
      ".,": 1580,
      "Ġserv": 1581,
      "Ġris": 1582,
      "Ġlaw": 1583,
      "Ġlanguage": 1584,
      "Ġtext": 1585,
      "Ġvalues": 1586,
      "Ġmass": 1587,
      "ats": 1588,
      "Ġpres": 1589,
      "Ġdue": 1590,
      "ccess": 1591,
      "Ġworks": 1592,
      "ables": 1593,
      "ument": 1594,
      "Ġconn": 1595,
      "Ġsit": 1596,
      "ified": 1597,
      "Ġfour": 1598,
      "Ġimpro": 1599,
      "Ġbeg": 1600,
      "Ġabove": 1601,
      "Ġsignific": 1602,
      "Ġpoints": 1603,
      "Ġsever": 1604,
      "let": 1605,
      "Ġsurface": 1606,
      "Ġobs": 1607,
      "Ġnon": 1608,
      "====": 1609,
      "ring": 1610,
      "ĠWh": 1611,
      "Ġ\"\"\"": 1612,
      "âĢĵ": 1613,
      "Ġtot": 1614,
      "ots": 1615,
      "Ġsaid": 1616,
      "ording": 1617,
      "utions": 1618,
      "Ġcells": 1619,
      "Ġeconom": 1620,
      "Ġforce": 1621,
      "Ġsize": 1622,
      "Ġcreat": 1623,
      "iving": 1624,
      "ological": 1625,
      "Ġdon": 1626,
      "Ġlength": 1627,
      "Ġequation": 1628,
      "Ġpur": 1629,
      "ĠâĢĺ": 1630,
      "work": 1631,
      "ĊĠĠĠĠĠ": 1632,
      "Ġbehav": 1633,
      "Ġscient": 1634,
      "Ġname": 1635,
      "ĠSh": 1636,
      "ining": 1637,
      "def": 1638,
      "Ġimm": 1639,
      "ĠÐ": 1640,
      "ouse": 1641,
      "Ġ16": 1642,
      "Ġparticular": 1643,
      "Ġvarious": 1644,
      "ogn": 1645,
      "ames": 1646,
      "Ġflow": 1647,
      "Ġpublic": 1648,
      "ances": 1649,
      "rop": 1650,
      "ĠDe": 1651,
      "Ġtypes": 1652,
      "Ġcreate": 1653,
      "hemat": 1654,
      "Ġkey": 1655,
      "ĠPl": 1656,
      "Ġfew": 1657,
      "rac": 1658,
      "ĠAnd": 1659,
      "Ġmov": 1660,
      "If": 1661,
      "ajor": 1662,
      "Ġquestions": 1663,
      "Ġterm": 1664,
      "ends": 1665,
      "Ġstep": 1666,
      "aces": 1667,
      "Ġbetter": 1668,
      "ane": 1669,
      "Ġhapp": 1670,
      "50": 1671,
      "Ġprovide": 1672,
      "alk": 1673,
      "Ġword": 1674,
      "Ġmot": 1675,
      "Ġprof": 1676,
      "čĊĠĠĠ": 1677,
      "Ġconcept": 1678,
      "Ġpress": 1679,
      "orth": 1680,
      "lo": 1681,
      "Ġimpact": 1682,
      "Ġunderstanding": 1683,
      "Ġfore": 1684,
      "Ġlow": 1685,
      "ories": 1686,
      "Ġproject": 1687,
      "Ġcomb": 1688,
      "arc": 1689,
      "ler": 1690,
      "Ġdr": 1691,
      "Ġskills": 1692,
      "Ġperform": 1693,
      "Ġseveral": 1694,
      "An": 1695,
      "Ġprom": 1696,
      "Ġmill": 1697,
      "ived": 1698,
      "ton": 1699,
      "Ġcharacter": 1700,
      "Ġsince": 1701,
      "ĠAmerican": 1702,
      "Ġhig": 1703,
      "yn": 1704,
      "ĠCl": 1705,
      "less": 1706,
      "Ġdev": 1707,
      "ĠEarth": 1708,
      "Ġnext": 1709,
      "ĠSp": 1710,
      "Ġtoget": 1711,
      "18": 1712,
      "Ġtogether": 1713,
      "Ġcertain": 1714,
      "urther": 1715,
      "Ġ`": 1716,
      "We": 1717,
      "Ġturn": 1718,
      "Ġbecome": 1719,
      "Ġdirect": 1720,
      "Ġsay": 1721,
      "ĠIs": 1722,
      "osed": 1723,
      "aves": 1724,
      "Ġfin": 1725,
      "ume": 1726,
      "ither": 1727,
      "Ġsing": 1728,
      "\")": 1729,
      "Ġ17": 1730,
      "ries": 1731,
      "Ġrest": 1732,
      "ik": 1733,
      "ym": 1734,
      "Ġteac": 1735,
      "ocus": 1736,
      "Ġareas": 1737,
      "Ġtotal": 1738,
      "Ġbest": 1739,
      "Ġbo": 1740,
      "Ġways": 1741,
      "Ġcare": 1742,
      "Ġwar": 1743,
      "not": 1744,
      "Ġpa": 1745,
      "----------------": 1746,
      "log": 1747,
      "ians": 1748,
      "ĠX": 1749,
      "Ġearly": 1750,
      "Ġneg": 1751,
      "Ġbelie": 1752,
      "Ġmath": 1753,
      "play": 1754,
      "Ġcomplex": 1755,
      "ule": 1756,
      "Ġmark": 1757,
      "],": 1758,
      "Ġcost": 1759,
      "Ġpost": 1760,
      "Ġcy": 1761,
      "vious": 1762,
      "Ġsimilar": 1763,
      "Ġrelations": 1764,
      "ĠBy": 1765,
      "ique": 1766,
      "Ġiss": 1767,
      "Ġrate": 1768,
      "Ġblood": 1769,
      "ems": 1770,
      "Ġdig": 1771,
      "Ġtre": 1772,
      "Ġfield": 1773,
      "Ġet": 1774,
      "Ġrev": 1775,
      "bon": 1776,
      "ently": 1777,
      "Ġ)": 1778,
      "ention": 1779,
      "Ġcause": 1780,
      "hor": 1781,
      "over": 1782,
      "Ġmajor": 1783,
      "')": 1784,
      "br": 1785,
      "Ġtrue": 1786,
      "To": 1787,
      "Ġdescrib": 1788,
      "Ġbi": 1789,
      "eral": 1790,
      "ma": 1791,
      "Ġes": 1792,
      "ditions": 1793,
      "Ġnatural": 1794,
      "Ġhistory": 1795,
      "Ġindu": 1796,
      "pre": 1797,
      "igure": 1798,
      "ror": 1799,
      "Ġsignificant": 1800,
      "Ġthings": 1801,
      "Ġmaking": 1802,
      "Ġ100": 1803,
      "Ġwhy": 1804,
      "ĠUnited": 1805,
      "Ġsystems": 1806,
      "Ġdiscuss": 1807,
      "Ġside": 1808,
      "ah": 1809,
      "Ġgraph": 1810,
      "ators": 1811,
      "Ġalong": 1812,
      "Ġage": 1813,
      "Ġprovid": 1814,
      "Ġ11": 1815,
      "icult": 1816,
      "Ġhead": 1817,
      "Ġpotential": 1818,
      "orn": 1819,
      "Ġsimple": 1820,
      "Ġgovernment": 1821,
      "Ġcontrol": 1822,
      "ounds": 1823,
      "Ġsom": 1824,
      "osp": 1825,
      "right": 1826,
      "ively": 1827,
      "Ġfree": 1828,
      "ula": 1829,
      "gs": 1830,
      "Ġothers": 1831,
      "Ġkeep": 1832,
      "Ġ,": 1833,
      "Ġsw": 1834,
      "Ġprogram": 1835,
      "Ġalways": 1836,
      "Ġcontain": 1837,
      "Ġspeed": 1838,
      "Ġsuccess": 1839,
      "Ġshort": 1840,
      "Ġge": 1841,
      "icle": 1842,
      "ething": 1843,
      "ledge": 1844,
      "Ġben": 1845,
      "idd": 1846,
      "ember": 1847,
      "Ġtry": 1848,
      "Ġbelow": 1849,
      "ird": 1850,
      "Ġdel": 1851,
      "Ġunt": 1852,
      "}{": 1853,
      "Ġagainst": 1854,
      "oh": 1855,
      "epend": 1856,
      "ĠRes": 1857,
      "Ġdiv": 1858,
      "Ġdisease": 1859,
      "Ġopen": 1860,
      "Ġfocus": 1861,
      "ograph": 1862,
      "ĠPh": 1863,
      "ĊĠĠĠĠĠĠĠĠĠĠĠĠĠĠĠĠ": 1864,
      "iver": 1865,
      "ush": 1866,
      "be": 1867,
      "Ex": 1868,
      "Ġmar": 1869,
      "Ġ$$": 1870,
      "Ġrun": 1871,
      "As": 1872,
      "ĠStates": 1873,
      "Ġnorm": 1874,
      "Ġ14": 1875,
      "Ġlo": 1876,
      "15": 1877,
      "Ġcrit": 1878,
      "Ġspecific": 1879,
      "ĊĊĠĠĠĠĠĠĠ": 1880,
      "Ġlab": 1881,
      "There": 1882,
      "Ġmodel": 1883,
      "cle": 1884,
      "Ġvir": 1885,
      "Ġdeg": 1886,
      "ols": 1887,
      "ero": 1888,
      "Ġstring": 1889,
      "Ġmil": 1890,
      "Ġchall": 1891,
      "clus": 1892,
      "verage": 1893,
      "Ġchanges": 1894,
      "ĠTr": 1895,
      "Ġhome": 1896,
      "frac": 1897,
      "ges": 1898,
      "Ġusually": 1899,
      "ĠAt": 1900,
      "angle": 1901,
      "Ġold": 1902,
      "man": 1903,
      "Ġsent": 1904,
      "::": 1905,
      "alse": 1906,
      "istic": 1907,
      "iness": 1908,
      "Ġpred": 1909,
      "Ġenc": 1910,
      "idence": 1911,
      "Ġant": 1912,
      "itud": 1913,
      "Ġacross": 1914,
      "ours": 1915,
      "though": 1916,
      "lished": 1917,
      "Ġpositive": 1918,
      "Ġsoci": 1919,
      "Ġsomething": 1920,
      "Ġgive": 1921,
      "``": 1922,
      "ilities": 1923,
      "ysis": 1924,
      "urope": 1925,
      "Ġresults": 1926,
      "Ġinflu": 1927,
      "Ġinput": 1928,
      "Ġdistance": 1929,
      "Ġcorrect": 1930,
      "ĠLe": 1931,
      "atures": 1932,
      "ĠQu": 1933,
      "Ġplants": 1934,
      "Ġfactors": 1935,
      "ruction": 1936,
      "Ġconsider": 1937,
      "ling": 1938,
      "Ġterms": 1939,
      "16": 1940,
      "Ġrole": 1941,
      "Ġview": 1942,
      "Ġbegin": 1943,
      "bra": 1944,
      "ortun": 1945,
      "fric": 1946,
      "Ġarg": 1947,
      "Ġcomplete": 1948,
      "Ġplant": 1949,
      "uture": 1950,
      "Ġsolution": 1951,
      "13": 1952,
      "Ġpercent": 1953,
      "ĠStud": 1954,
      "Ġnear": 1955,
      "Ġwomen": 1956,
      "ooks": 1957,
      ",âĢĿ": 1958,
      "erence": 1959,
      "Ġmax": 1960,
      "yle": 1961,
      "Ġopt": 1962,
      "Ġask": 1963,
      "lying": 1964,
      "aching": 1965,
      "asing": 1966,
      "Ġens": 1967,
      "Ġpattern": 1968,
      "az": 1969,
      "Ġput": 1970,
      "Ġfeel": 1971,
      "Ġmonth": 1972,
      "Ġrelationship": 1973,
      "stit": 1974,
      "Ġdifficult": 1975,
      "Ġamong": 1976,
      "ĠWor": 1977,
      "omes": 1978,
      "Ġactivities": 1979,
      "pro": 1980,
      "âĢľ": 1981,
      "por": 1982,
      "fficient": 1983,
      "ending": 1984,
      "Ġ13": 1985,
      "erc": 1986,
      "Ġconditions": 1987,
      "Ġobserv": 1988,
      "ĠUniversity": 1989,
      "Ġfra": 1990,
      "ĠCan": 1991,
      "Ġexist": 1992,
      "14": 1993,
      "For": 1994,
      "Ġcr": 1995,
      "Ġprim": 1996,
      "ystem": 1997,
      "Ġarr": 1998,
      "Ġavail": 1999,
      "ission": 2000,
      "Ġgr": 2001,
      "Ġuntil": 2002,
      "py": 2003,
      "Ġnet": 2004,
      "Ġincrease": 2005,
      "Ġpolit": 2006,
      "aps": 2007,
      "Ġelements": 2008,
      "Ġsquare": 2009,
      "Ġinit": 2010,
      "Ġ*/": 2011,
      "aring": 2012,
      "Ġstudent": 2013,
      "Ġpopulation": 2014,
      "cur": 2015,
      "ones": 2016,
      "Ġ30": 2017,
      "ored": 2018,
      "ek": 2019,
      "Ch": 2020,
      "Ġgeneral": 2021,
      "ptoms": 2022,
      "rix": 2023,
      "Ġcome": 2024,
      "aster": 2025,
      "Ġsingle": 2026,
      "ivity": 2027,
      "Ġassoci": 2028,
      "Ð¾": 2029,
      "eter": 2030,
      "atch": 2031,
      "imal": 2032,
      "Ġcentury": 2033,
      "Ġdays": 2034,
      "ised": 2035,
      "])": 2036,
      "plic": 2037,
      "ĠÃ": 2038,
      "ĠBrit": 2039,
      "();": 2040,
      "Ġevent": 2041,
      "Ġinvest": 2042,
      "Ġhigher": 2043,
      "Ġbook": 2044,
      "Ġknowledge": 2045,
      "Ġgroups": 2046,
      "Ġwriting": 2047,
      "ĠCol": 2048,
      "Ġstrateg": 2049,
      "Ġfar": 2050,
      "ales": 2051,
      "une": 2052,
      "ately": 2053,
      "Ġ<<": 2054,
      "Ġactivity": 2055,
      "ï¼": 2056,
      "pecial": 2057,
      "Ġresources": 2058,
      "Ġlog": 2059,
      "Ġleast": 2060,
      "ndom": 2061,
      "ĠEurope": 2062,
      "Ġaccess": 2063,
      "Ġmagn": 2064,
      "Ġapplic": 2065,
      "Ġtemperature": 2066,
      "Ġfac": 2067,
      "icro": 2068,
      "Ġhim": 2069,
      "Ġflu": 2070,
      "ggest": 2071,
      "Ġleg": 2072,
      "Ġlevels": 2073,
      "ended": 2074,
      "set": 2075,
      "ĠAfric": 2076,
      "Ġfrequ": 2077,
      "oney": 2078,
      "cer": 2079,
      "Ġparent": 2080,
      "Ġrele": 2081,
      "ival": 2082,
      "NA": 2083,
      "Ġeither": 2084,
      "Ġstructure": 2085,
      "Ġill": 2086,
      "Ġremain": 2087,
      "Ġmathemat": 2088,
      "name": 2089,
      "Ġunit": 2090,
      "utes": 2091,
      "Ġglob": 2092,
      "Ġdistrib": 2093,
      "17": 2094,
      "Ġchem": 2095,
      "ĠOn": 2096,
      "wards": 2097,
      "Ġeducation": 2098,
      "ivil": 2099,
      "ĠTe": 2100,
      "Ðµ": 2101,
      "inary": 2102,
      "ights": 2103,
      "ĠZ": 2104,
      "alf": 2105,
      "Ġcourse": 2106,
      "amp": 2107,
      "iation": 2108,
      "return": 2109,
      "25": 2110,
      "Ġbenef": 2111,
      "Ġdifference": 2112,
      "Ġstat": 2113,
      "Ġarray": 2114,
      "ires": 2115,
      "ask": 2116,
      "ER": 2117,
      "Ġrisk": 2118,
      "Ġappear": 2119,
      "Ġclear": 2120,
      "mon": 2121,
      "Ġsoil": 2122,
      "ploy": 2123,
      "Ġfuture": 2124,
      "Ġnecess": 2125,
      "Ġnegative": 2126,
      "Ġlater": 2127,
      "Ġelement": 2128,
      "ably": 2129,
      "ĠOne": 2130,
      "Ġsubject": 2131,
      "ĠWar": 2132,
      "Ġcontrib": 2133,
      "Ġmakes": 2134,
      "Ġintern": 2135,
      "Ġlittle": 2136,
      "Ġsuggest": 2137,
      "Ġpressure": 2138,
      "Ġwhether": 2139,
      "Ġstates": 2140,
      "orts": 2141,
      "Ġwind": 2142,
      "Ġresearc": 2143,
      "Ġparts": 2144,
      "Ġwrite": 2145,
      "istics": 2146,
      "Ġdraw": 2147,
      "lection": 2148,
      "cked": 2149,
      "aken": 2150,
      "Ġbreak": 2151,
      "Ġabs": 2152,
      "Ġreason": 2153,
      "min": 2154,
      "Ġstrong": 2155,
      "Ġpractice": 2156,
      "mit": 2157,
      "ĠSome": 2158,
      "ina": 2159,
      "Ġquant": 2160,
      "Ġspecial": 2161,
      "Ġprevent": 2162,
      "apt": 2163,
      "Ġlower": 2164,
      "arr": 2165,
      "Ġessential": 2166,
      "oon": 2167,
      "Ġbrain": 2168,
      "Ġgoing": 2169,
      "ĠOr": 2170,
      "sh": 2171,
      "by": 2172,
      "Ġey": 2173,
      "Ġphysical": 2174,
      "ream": 2175,
      "Ġneeds": 2176,
      "ĠWith": 2177,
      "Ġprin": 2178,
      "Ġrece": 2179,
      "30": 2180,
      "||": 2181,
      "omin": 2182,
      "Ð°": 2183,
      "Ġpain": 2184,
      "Ġposition": 2185,
      "}$": 2186,
      "ĠEn": 2187,
      "Ġcarbon": 2188,
      "Ġpaper": 2189,
      "Ġintrodu": 2190,
      "Ġhard": 2191,
      "Ġpath": 2192,
      "Ġfurther": 2193,
      "Ġbro": 2194,
      "imens": 2195,
      "Ġsaf": 2196,
      "Ġbus": 2197,
      "Ar": 2198,
      "Ġcolor": 2199,
      "imum": 2200,
      "Ġavailable": 2201,
      "Ġanimals": 2202,
      "AT": 2203,
      "Ġclimate": 2204,
      "Ġkind": 2205,
      "Ġmen": 2206,
      "ĠâĪ": 2207,
      "Ġexpress": 2208,
      "Ġcountry": 2209,
      "iting": 2210,
      "Ġrespons": 2211,
      "Ġindic": 2212,
      "Ġreading": 2213,
      "Ġestab": 2214,
      ".\"": 2215,
      "Ġcontinu": 2216,
      "Ġtoday": 2217,
      "Ġsymptoms": 2218,
      "22": 2219,
      "value": 2220,
      "Ġdirection": 2221,
      "Ġsource": 2222,
      "class": 2223,
      "Ġsens": 2224,
      "rams": 2225,
      "Ġteam": 2226,
      "://": 2227,
      "ĠEnglish": 2228,
      "Ġground": 2229,
      "ĠMath": 2230,
      "ott": 2231,
      "Ġsitu": 2232,
      "Ġdefin": 2233,
      "Ġmaterials": 2234,
      "Ġlay": 2235,
      "Ġyoung": 2236,
      "Ġcho": 2237,
      "col": 2238,
      "param": 2239,
      "ĠAll": 2240,
      "Ġtechnology": 2241,
      "Ġcompon": 2242,
      "chie": 2243,
      "Ġloss": 2244,
      "side": 2245,
      "Ġcases": 2246,
      "Ġfamily": 2247,
      "Ġlikely": 2248,
      "atory": 2249,
      "Ġtheory": 2250,
      "rad": 2251,
      "Ġprobability": 2252,
      "arget": 2253,
      "ww": 2254,
      "Ġscience": 2255,
      "You": 2256,
      "ĠIm": 2257,
      "umn": 2258,
      "action": 2259,
      "overed": 2260,
      "Ġgrowth": 2261,
      "Ġconstant": 2262,
      "Ġ25": 2263,
      "Ġrul": 2264,
      "Ġsequ": 2265,
      "Ġ199": 2266,
      "Ġenough": 2267,
      "text": 2268,
      "Ġlines": 2269,
      "Ġrequire": 2270,
      "Ġmethods": 2271,
      "Ġtreatment": 2272,
      "Ġcheck": 2273,
      "ged": 2274,
      "When": 2275,
      "istance": 2276,
      "Ġworking": 2277,
      "čĊĠĠĠĠĠĠĠ": 2278,
      "Ġbig": 2279,
      "place": 2280,
      "Ġtravel": 2281,
      "Ġexplain": 2282,
      "Ġsure": 2283,
      "sy": 2284,
      "equ": 2285,
      "Ġgas": 2286,
      "Ġimprove": 2287,
      "Ġnode": 2288,
      "nces": 2289,
      "iddle": 2290,
      "rict": 2291,
      "Ġrelated": 2292,
      "Ġhaving": 2293,
      "Ġaccount": 2294,
      "Ġexperience": 2295,
      "Ġelectric": 2296,
      "oura": 2297,
      "Ġvert": 2298,
      "Ġaverage": 2299,
      "ann": 2300,
      "Ġsolve": 2301,
      "ĠGerm": 2302,
      "rel": 2303,
      "Ġformula": 2304,
      "ĠThat": 2305,
      "Ġphot": 2306,
      "ĊĠĠ": 2307,
      "ĠâĢĶ": 2308,
      "list": 2309,
      "Ġclose": 2310,
      "use": 2311,
      "Ġprevious": 2312,
      "Ġdone": 2313,
      "Ġaway": 2314,
      "izing": 2315,
      "Ġred": 2316,
      "oose": 2317,
      "ĠPr": 2318,
      "Ġcannot": 2319,
      "Ġstandard": 2320,
      "ches": 2321,
      "left": 2322,
      "Ġindividuals": 2323,
      "Ġexperim": 2324,
      "Ġweight": 2325,
      "Ġhowever": 2326,
      "sequ": 2327,
      "Ġblack": 2328,
      "Ġdivid": 2329,
      "Ġobjects": 2330,
      "Ġwhole": 2331,
      "Ġmillion": 2332,
      "selves": 2333,
      "thing": 2334,
      "Ġachie": 2335,
      "ae": 2336,
      "most": 2337,
      "Ġcoll": 2338,
      "60": 2339,
      "Ġdam": 2340,
      "Ġbehavior": 2341,
      "Ġconsidered": 2342,
      "ometimes": 2343,
      "duct": 2344,
      "Ġlocal": 2345,
      "sole": 2346,
      "Ġvector": 2347,
      "Ġpie": 2348,
      "Ġcreated": 2349,
      "Ġheat": 2350,
      "Ġability": 2351,
      "Ġfun": 2352,
      "oot": 2353,
      "Ġroot": 2354,
      "length": 2355,
      "Ġsepar": 2356,
      "_{": 2357,
      "Ġbir": 2358,
      "Ġrecord": 2359,
      "pecially": 2360,
      "agement": 2361,
      "itude": 2362,
      "like": 2363,
      "Ġrecogn": 2364,
      "Ġmeaning": 2365,
      "ients": 2366,
      "ipp": 2367,
      "Ġrat": 2368,
      "wh": 2369,
      "Ġ50": 2370,
      "ification": 2371,
      "ections": 2372,
      "ites": 2373,
      "Ġfunctions": 2374,
      "Ġquick": 2375,
      "ils": 2376,
      "Ġpast": 2377,
      "chan": 2378,
      "Ġgreater": 2379,
      "Ġexamples": 2380,
      "ĠBe": 2381,
      "Ġbat": 2382,
      "âĢ¦": 2383,
      "Ġliter": 2384,
      "Ġbecame": 2385,
      "çļ": 2386,
      "Ġstory": 2387,
      "Ġrelative": 2388,
      "bol": 2389,
      "ithm": 2390,
      "Ġresearchers": 2391,
      "af": 2392,
      "const": 2393,
      "Ġfall": 2394,
      "Ġearth": 2395,
      "Ġtell": 2396,
      "ĠFr": 2397,
      "çļĦ": 2398,
      "Ġindepend": 2399,
      "ok": 2400,
      "Ġseen": 2401,
      "Ġwritten": 2402,
      "Ġdeveloped": 2403,
      "ready": 2404,
      "Ġidea": 2405,
      "Ġfull": 2406,
      "iven": 2407,
      "Ġsun": 2408,
      "Ġtree": 2409,
      "urb": 2410,
      "Ġfil": 2411,
      "Ġcountries": 2412,
      "Ġdetermine": 2413,
      "ta": 2414,
      "Ġopportun": 2415,
      "Ġfactor": 2416,
      "Ġrequired": 2417,
      "Ġrandom": 2418,
      "Ġcondition": 2419,
      "Ġeffects": 2420,
      "Ġfive": 2421,
      "Ġevents": 2422,
      "Ġexact": 2423,
      "Ġbasic": 2424,
      "Ġneeded": 2425,
      "Ġrights": 2426,
      "Ġrespect": 2427,
      "co": 2428,
      "ius": 2429,
      "ype": 2430,
      "aut": 2431,
      "inter": 2432,
      "order": 2433,
      "Ġproduction": 2434,
      "Ġchalleng": 2435,
      "ands": 2436,
      "Ġproduce": 2437,
      "Ġapproach": 2438,
      "ES": 2439,
      "my": 2440,
      "Ġauthor": 2441,
      "So": 2442,
      "Ġhelps": 2443,
      "Ġglobal": 2444,
      "Ġreport": 2445,
      "Ġshape": 2446,
      "math": 2447,
      "oman": 2448,
      "fer": 2449,
      "Ġideas": 2450,
      "ene": 2451,
      "Ġpolitical": 2452,
      "Ġstra": 2453,
      "Ġmicro": 2454,
      "ips": 2455,
      "gor": 2456,
      "Ġshows": 2457,
      "Ġanalysis": 2458,
      "Ġreally": 2459,
      "Ġmodern": 2460,
      "Ġrather": 2461,
      "********": 2462,
      "Ġcomputer": 2463,
      "Ġaddress": 2464,
      "Ġhalf": 2465,
      "ties": 2466,
      "Ġpric": 2467,
      "ÑĤ": 2468,
      "Ġcommunity": 2469,
      "Ġwhite": 2470,
      "function": 2471,
      "back": 2472,
      "dis": 2473,
      "esc": 2474,
      "Ġpay": 2475,
      "Ġangle": 2476,
      "Ġdetail": 2477,
      "40": 2478,
      "Ġreduce": 2479,
      "aries": 2480,
      "Ġidentify": 2481,
      "ckeditor": 2482,
      "gest": 2483,
      "reme": 2484,
      "umber": 2485,
      "Ġdoc": 2486,
      "Ġconc": 2487,
      "Ġmovement": 2488,
      "ON": 2489,
      "ĠSc": 2490,
      "enge": 2491,
      "Wh": 2492,
      "Ġalready": 2493,
      "Ġforms": 2494,
      "];": 2495,
      "empt": 2496,
      "Ġthroughout": 2497,
      "Ġsociety": 2498,
      "Ġ+=": 2499,
      "abit": 2500,
      "Ġmultiple": 2501,
      "Ġbase": 2502,
      "Ġespecially": 2503,
      "Ġmole": 2504,
      "Ġspread": 2505,
      "oes": 2506,
      "Al": 2507,
      "Ġnormal": 2508,
      "ĠInt": 2509,
      "Ġmatter": 2510,
      "alle": 2511,
      "aced": 2512,
      "Ġengine": 2513,
      "Ġwide": 2514,
      "Ġ=>": 2515,
      "Ġcolon": 2516,
      "Ġthought": 2517,
      "ĠBl": 2518,
      "Ġsection": 2519,
      "ising": 2520,
      "anced": 2521,
      "Ġarticle": 2522,
      "Ġsense": 2523,
      "ibility": 2524,
      "Ġactually": 2525,
      "Ġgame": 2526,
      ".)": 2527,
      "Ġonce": 2528,
      "apter": 2529,
      "Ġvariable": 2530,
      "ze": 2531,
      "''": 2532,
      "view": 2533,
      "Ġlive": 2534,
      "Ġeconomic": 2535,
      "Ġseries": 2536,
      "Ġsays": 2537,
      "acy": 2538,
      "aging": 2539,
      "Ġheart": 2540,
      "ison": 2541,
      "Ġetc": 2542,
      "ery": 2543,
      "ilt": 2544,
      "Ġpolic": 2545,
      "Ġox": 2546,
      "Ġlot": 2547,
      "Ġinitial": 2548,
      "Ġnumer": 2549,
      "Ġscientists": 2550,
      "++": 2551,
      "Ġindex": 2552,
      "edi": 2553,
      "21": 2554,
      "Ð¸": 2555,
      "Ġzero": 2556,
      "Ġsound": 2557,
      "plement": 2558,
      "Ġder": 2559,
      "Ġassociated": 2560,
      "Ġshown": 2561,
      "ĠGe": 2562,
      "gebra": 2563,
      "Ġcop": 2564,
      "cos": 2565,
      "light": 2566,
      "ĠUS": 2567,
      "ores": 2568,
      "Ġnature": 2569,
      "rist": 2570,
      "ises": 2571,
      "Ġtable": 2572,
      "ening": 2573,
      "Ġeffective": 2574,
      "this": 2575,
      "yp": 2576,
      "Ġprofess": 2577,
      "{\\": 2578,
      "Ġprotect": 2579,
      "bo": 2580,
      "Ġsuper": 2581,
      "Ġregion": 2582,
      "ĠAmerica": 2583,
      "Ġpoll": 2584,
      "Ġchemical": 2585,
      "Ġrow": 2586,
      "iction": 2587,
      "ĠÎ": 2588,
      "Ġax": 2589,
      "ply": 2590,
      "Ġmembers": 2591,
      "ĠĠĠĠĠĠĠĠĠĠĠĠĠĠĠĠ": 2592,
      "enn": 2593,
      "Ġtarget": 2594,
      "ĠAct": 2595,
      "Ġemot": 2596,
      "Ġitself": 2597,
      "Ġmusic": 2598,
      "Ġcomes": 2599,
      "part": 2600,
      "Ġball": 2601,
      "Ġ\\$": 2602,
      "iam": 2603,
      "veloc": 2604,
      "omm": 2605,
      "new": 2606,
      "odes": 2607,
      "Ġcaused": 2608,
      "ee": 2609,
      "ĠSouth": 2610,
      "Ġeff": 2611,
      "Ġmind": 2612,
      "Ġcut": 2613,
      "Ġelectr": 2614,
      "Ġunique": 2615,
      "Ġ$\\": 2616,
      "Ġfeed": 2617,
      "ĠEm": 2618,
      "Ġmoney": 2619,
      "Ġsat": 2620,
      "erve": 2621,
      "Ġtaken": 2622,
      "reg": 2623,
      "Ġmach": 2624,
      "Ġmaintain": 2625,
      "Ġfund": 2626,
      "room": 2627,
      "ming": 2628,
      "version": 2629,
      "ĠNational": 2630,
      "Ġthemselves": 2631,
      "ĠWorld": 2632,
      "celer": 2633,
      "Ġanaly": 2634,
      "oring": 2635,
      "Ġtakes": 2636,
      "Ġnever": 2637,
      "Ġlarger": 2638,
      "Ġentire": 2639,
      "head": 2640,
      "Ġhistor": 2641,
      "amples": 2642,
      "Ġnut": 2643,
      "uit": 2644,
      "Ġbuilding": 2645,
      "Ġoriginal": 2646,
      "ĠAfter": 2647,
      "iques": 2648,
      "Ġcollect": 2649,
      "Ġrot": 2650,
      "estion": 2651,
      "\"\"\"": 2652,
      "isms": 2653,
      "Ġhours": 2654,
      "Ġmechan": 2655,
      "lam": 2656,
      "Ġhyd": 2657,
      "ĠÂ": 2658,
      "astic": 2659,
      "Ġret": 2660,
      "Ġnecessary": 2661,
      "Ġ...": 2662,
      "Ġbusiness": 2663,
      "emic": 2664,
      "Ġpair": 2665,
      "ĠNorth": 2666,
      "Ġquality": 2667,
      "Ġequations": 2668,
      "Ġcauses": 2669,
      "Ġheight": 2670,
      "Ġincreasing": 2671,
      "onse": 2672,
      "ĠCent": 2673,
      "Ġaccording": 2674,
      "Ġprovides": 2675,
      "Ġden": 2676,
      "mosp": 2677,
      "][": 2678,
      "Ġconsum": 2679,
      "Ġpict": 2680,
      "Ġflo": 2681,
      "Ġincreased": 2682,
      "Ġissues": 2683,
      "Ġ!": 2684,
      "Ġemploy": 2685,
      "Ġuses": 2686,
      "Ġeasy": 2687,
      "urs": 2688,
      "List": 2689,
      "Ġgreen": 2690,
      "Ġthinking": 2691,
      "ixed": 2692,
      "iter": 2693,
      "unt": 2694,
      "\".": 2695,
      "Ġlink": 2696,
      "Ġsix": 2697,
      "oph": 2698,
      "ĠMay": 2699,
      "Ġveloc": 2700,
      "Ġbal": 2701,
      "rees": 2702,
      "Ġmatrix": 2703,
      "23": 2704,
      "lement": 2705,
      "Ġliving": 2706,
      "wo": 2707,
      "imately": 2708,
      "Ġver": 2709,
      "ĠUs": 2710,
      "Ġcalculate": 2711,
      "uments": 2712,
      "ensity": 2713,
      "lease": 2714,
      "Ġaction": 2715,
      "sp": 2716,
      "ump": 2717,
      "ĠCont": 2718,
      "Ġdefined": 2719,
      "Ġfigure": 2720,
      "Ġ__": 2721,
      "ript": 2722,
      "earch": 2723,
      "cean": 2724,
      "ĠPar": 2725,
      "Ġappl": 2726,
      "rim": 2727,
      "ulations": 2728,
      "Ġevidence": 2729,
      "ĠBritish": 2730,
      "Ġhol": 2731,
      "abor": 2732,
      "Ġtradition": 2733,
      "Ġrefer": 2734,
      "Ġassess": 2735,
      "ĠPol": 2736,
      "anks": 2737,
      "leep": 2738,
      "Ġfri": 2739,
      "########": 2740,
      "string": 2741,
      "come": 2742,
      "aches": 2743,
      "Ġled": 2744,
      "ucle": 2745,
      "ground": 2746,
      "ĠLet": 2747,
      "ĠHere": 2748,
      "ĠAss": 2749,
      "ĠGen": 2750,
      "acks": 2751,
      "Ġbacter": 2752,
      "Ġsample": 2753,
      "upp": 2754,
      "lt": 2755,
      "dd": 2756,
      "data": 2757,
      "ordin": 2758,
      "Ġdest": 2759,
      "sych": 2760,
      "onstr": 2761,
      "Ġhtt": 2762,
      "ĊĊĠ": 2763,
      "Ġut": 2764,
      "Ġvirus": 2765,
      "fact": 2766,
      "ohn": 2767,
      "ront": 2768,
      "Ġpub": 2769,
      "Ġupon": 2770,
      "Ġlesson": 2771,
      "Ġregard": 2772,
      "ift": 2773,
      "icial": 2774,
      "Ġweek": 2775,
      "Ġoutput": 2776,
      "Ġstudies": 2777,
      "ĠWhile": 2778,
      "uel": 2779,
      "Ġ%": 2780,
      "acc": 2781,
      "100": 2782,
      "Ġimage": 2783,
      "Ġparticip": 2784,
      "pose": 2785,
      "Ġbegan": 2786,
      "Ġallows": 2787,
      "Ġbound": 2788,
      "ĠII": 2789,
      "Ġfeet": 2790,
      "Ġorigin": 2791,
      "Ġsources": 2792,
      "uted": 2793,
      "Ġprinci": 2794,
      "Ġcontains": 2795,
      "Ġensure": 2796,
      "Ġvide": 2797,
      "Ġcode": 2798,
      "========": 2799,
      "Ġann": 2800,
      "Ġshap": 2801,
      "atives": 2802,
      "AS": 2803,
      "osis": 2804,
      "Ġrelig": 2805,
      "Ġmom": 2806,
      "Pro": 2807,
      "Ġplanet": 2808,
      "lex": 2809,
      "Ġteachers": 2810,
      "Ġconsist": 2811,
      "iber": 2812,
      "Ġfail": 2813,
      "Ġdeath": 2814,
      "Ġselect": 2815,
      "input": 2816,
      "Ġexplore": 2817,
      "enc": 2818,
      "Ġgives": 2819,
      "Ġport": 2820,
      "Ġlinear": 2821,
      "Ġbar": 2822,
      "Ġsmaller": 2823,
      "Ġatmosp": 2824,
      "Ġdiag": 2825,
      "bit": 2826,
      "where": 2827,
      "Ġunits": 2828,
      "Ġvariables": 2829,
      "vere": 2830,
      "80": 2831,
      "Ġincludes": 2832,
      "Ġtowards": 2833,
      "Ġforest": 2834,
      "Ġarch": 2835,
      "Ġsimply": 2836,
      "Ġï": 2837,
      "Ġregular": 2838,
      "IN": 2839,
      "illed": 2840,
      "24": 2841,
      "].": 2842,
      "eb": 2843,
      "Ġinside": 2844,
      "Ġgain": 2845,
      "ender": 2846,
      "By": 2847,
      "Ġhor": 2848,
      "Ġcontinue": 2849,
      "Ġprovided": 2850,
      "Ġcritical": 2851,
      "Ġvelocity": 2852,
      "ĠThen": 2853,
      "Ġstop": 2854,
      "ounter": 2855,
      "pri": 2856,
      "Ġsal": 2857,
      "Ġdecre": 2858,
      "rogen": 2859,
      "alu": 2860,
      "Ġconstruct": 2861,
      "ĠÂł": 2862,
      "augh": 2863,
      "->": 2864,
      "ĠIndia": 2865,
      "Ġhyp": 2866,
      "Ġcolumn": 2867,
      "word": 2868,
      "clusion": 2869,
      "raft": 2870,
      "Ġmoving": 2871,
      "Ġcru": 2872,
      "Ġjour": 2873,
      "hesis": 2874,
      "Ġ24": 2875,
      "next": 2876,
      "Ġprote": 2877,
      ">>": 2878,
      "':": 2879,
      "resp": 2880,
      "Ġproducts": 2881,
      "Ġavoid": 2882,
      "Ġkil": 2883,
      "Ġforces": 2884,
      "Ġ40": 2885,
      "Ġtaking": 2886,
      "ili": 2887,
      "Ġdeep": 2888,
      "Ġshare": 2889,
      "lands": 2890,
      "way": 2891,
      "wise": 2892,
      "Node": 2893,
      "Ġcontext": 2894,
      "AR": 2895,
      "Ġtransform": 2896,
      "ivate": 2897,
      "ï¼Į": 2898,
      "che": 2899,
      "One": 2900,
      "Ġdou": 2901,
      "Ġhumans": 2902,
      "Ġslow": 2903,
      "200": 2904,
      "Ġadult": 2905,
      "Ġculture": 2906,
      "actions": 2907,
      "Ġsurv": 2908,
      "Ġdistribution": 2909,
      "Ġthird": 2910,
      "reng": 2911,
      "rown": 2912,
      "Ġinstead": 2913,
      "Ġinstance": 2914,
      "Ġexpect": 2915,
      "Ġtalk": 2916,
      "Ġencoura": 2917,
      "Ġcame": 2918,
      "Ġtechniques": 2919,
      "Ġacceler": 2920,
      "ÂłÂłÂłÂł": 2921,
      "ĠSol": 2922,
      "ĠNe": 2923,
      "go": 2924,
      "Ġalgor": 2925,
      "ĠGo": 2926,
      "tic": 2927,
      "ĠCO": 2928,
      "Ġvariety": 2929,
      "ware": 2930,
      "Ġproduced": 2931,
      "Ġpersonal": 2932,
      "Ġaspect": 2933,
      "ĠSim": 2934,
      "Ġteaching": 2935,
      "ĠDis": 2936,
      "Ġtook": 2937,
      "size": 2938,
      "Ġlonger": 2939,
      "add": 2940,
      "ĠMat": 2941,
      "ĠHist": 2942,
      "Ġprec": 2943,
      "Ġsolutions": 2944,
      "Ġdirectly": 2945,
      "time": 2946,
      "Ġhouse": 2947,
      "ider": 2948,
      "Ġcontent": 2949,
      "Ġimplement": 2950,
      "Ġcity": 2951,
      "Ġmeet": 2952,
      "aim": 2953,
      "ened": 2954,
      "erson": 2955,
      "key": 2956,
      "ĠRep": 2957,
      "Ġconcepts": 2958,
      "bre": 2959,
      "Ġcivil": 2960,
      "elling": 2961,
      "Ġdemonstr": 2962,
      "Ġcross": 2963,
      "Ġfinal": 2964,
      "inct": 2965,
      "Ġfalse": 2966,
      "ĠCar": 2967,
      "Ġrule": 2968,
      "point": 2969,
      "ccording": 2970,
      "ĠNone": 2971,
      "Ġcal": 2972,
      "ĠMe": 2973,
      "Ġapprox": 2974,
      "Ġla": 2975,
      "rate": 2976,
      "Ġexerc": 2977,
      "que": 2978,
      "Ġformed": 2979,
      "Ġthing": 2980,
      "Ġadapt": 2981,
      "Ġcommunication": 2982,
      "Ġstress": 2983,
      "Ġsometimes": 2984,
      "iol": 2985,
      "isions": 2986,
      "Ġmemory": 2987,
      "ĊĠĠĠĠĠĠĠĠĠĠĠĠĠĠĠĠĠĠĠ": 2988,
      "append": 2989,
      "Ġconduct": 2990,
      "ĠRet": 2991,
      "Ġsolar": 2992,
      "ecause": 2993,
      "Ġworkshe": 2994,
      "Ġenvironmental": 2995,
      "Ġprocesses": 2996,
      "Ġcapac": 2997,
      "ields": 2998,
      "index": 2999,
      "....": 3000,
      "čĊč": 3001,
      "ube": 3002,
      "nal": 3003,
      "Ġdoesn": 3004,
      "Ġprimary": 3005,
      "pid": 3006,
      "Ġuseful": 3007,
      "Ġvolume": 3008,
      "Ġextreme": 3009,
      "________": 3010,
      "var": 3011,
      "estern": 3012,
      "Ġpatterns": 3013,
      "'re": 3014,
      "Ñģ": 3015,
      "Ġeasily": 3016,
      "rench": 3017,
      "ĠMore": 3018,
      "Ġlooking": 3019,
      "ricult": 3020,
      "._": 3021,
      "Ġtools": 3022,
      "Ġpredict": 3023,
      "sect": 3024,
      "33": 3025,
      "arily": 3026,
      "ĠLear": 3027,
      "mber": 3028,
      "Ġhabit": 3029,
      "Ġalmost": 3030,
      "Ġresponse": 3031,
      "type": 3032,
      "Ġtax": 3033,
      "Ġsides": 3034,
      "Ġfem": 3035,
      "hood": 3036,
      "Ġonline": 3037,
      "pper": 3038,
      ",\"": 3039,
      "ura": 3040,
      "Ġsubst": 3041,
      "Ġdecl": 3042,
      "Ġcontact": 3043,
      "nown": 3044,
      "Ð¾Ð": 3045,
      "Ġsea": 3046,
      "aged": 3047,
      "Ġir": 3048,
      "org": 3049,
      "Ġfram": 3050,
      "raction": 3051,
      "thon": 3052,
      "Ġtherefore": 3053,
      "ãģ": 3054,
      "Ġago": 3055,
      "array": 3056,
      "iency": 3057,
      "Ġconcern": 3058,
      "Ġwon": 3059,
      "cles": 3060,
      "Ġoccurs": 3061,
      "Ġice": 3062,
      "met": 3063,
      "ID": 3064,
      "ney": 3065,
      "fect": 3066,
      "Ġdocument": 3067,
      "ault": 3068,
      "from": 3069,
      "ried": 3070,
      "ster": 3071,
      "^{": 3072,
      "Ġobtain": 3073,
      "Ġbecomes": 3074,
      "ii": 3075,
      "ĠPer": 3076,
      "Ġteacher": 3077,
      "Ġgrav": 3078,
      "hing": 3079,
      "Ġmess": 3080,
      "mat": 3081,
      "ĠChrist": 3082,
      "Ġemp": 3083,
      "Ġcapt": 3084,
      "70": 3085,
      "ares": 3086,
      "ĠComm": 3087,
      "Ġassign": 3088,
      "Ġnetwork": 3089,
      "Ġstreng": 3090,
      "45": 3091,
      "Ġrock": 3092,
      "idth": 3093,
      "ging": 3094,
      "alue": 3095,
      "Ġreflect": 3096,
      "Ġappropri": 3097,
      "Ġratio": 3098,
      "Ġyet": 3099,
      "Ġproperties": 3100,
      "Ġevalu": 3101,
      "Ġdesigned": 3102,
      "import": 3103,
      "Ġ?": 3104,
      "Ġpage": 3105,
      "Ġsequence": 3106,
      "onom": 3107,
      "Ġdoing": 3108,
      "oll": 3109,
      "ĠâĢ¦": 3110,
      "Ġlimit": 3111,
      "Ġstrategies": 3112,
      "Ġscale": 3113,
      "Ġcircle": 3114,
      "Ġassum": 3115,
      "Ġlen": 3116,
      "ĠAust": 3117,
      "OR": 3118,
      "Ġinterpre": 3119,
      "Ġmonths": 3120,
      "tage": 3121,
      "Ġcenter": 3122,
      "vant": 3123,
      "Ġnational": 3124,
      "number": 3125,
      "ched": 3126,
      "ensive": 3127,
      "Now": 3128,
      "tr": 3129,
      "Ġsust": 3130,
      "iet": 3131,
      "aving": 3132,
      "Ġcultural": 3133,
      "ĠScience": 3134,
      "Ġhold": 3135,
      "Ġ60": 3136,
      "Ġmental": 3137,
      "Com": 3138,
      "ibr": 3139,
      "anes": 3140,
      "Ġsomeone": 3141,
      "Ġfeatures": 3142,
      "ĠMar": 3143,
      "ulate": 3144,
      "ured": 3145,
      "Ġtriangle": 3146,
      "ĠShe": 3147,
      "Ġfish": 3148,
      "Ġcat": 3149,
      "Ġstd": 3150,
      "fully": 3151,
      "asc": 3152,
      "Ġanimal": 3153,
      "Ġbill": 3154,
      "Ġcompet": 3155,
      "Ġsteps": 3156,
      "99": 3157,
      "Ġdefinition": 3158,
      "Ġ_": 3159,
      "eds": 3160,
      "ervation": 3161,
      "mar": 3162,
      "ĠFind": 3163,
      "Ġnucle": 3164,
      "rite": 3165,
      "ĠNow": 3166,
      "ÑĢ": 3167,
      "ada": 3168,
      "Ġaccept": 3169,
      "Ġestim": 3170,
      "Ġattention": 3171,
      "rior": 3172,
      "hens": 3173,
      "Ġaltern": 3174,
      "Ġconcent": 3175,
      "Ġsite": 3176,
      "Ġvisual": 3177,
      "rast": 3178,
      "Ġoutside": 3179,
      "ĠPre": 3180,
      "based": 3181,
      "ulum": 3182,
      "enced": 3183,
      "Ġgenerally": 3184,
      "Ġlives": 3185,
      "Ġminutes": 3186,
      "ygen": 3187,
      "Ġord": 3188,
      "Ġconver": 3189,
      "Ġinvolved": 3190,
      "issions": 3191,
      "amin": 3192,
      "ĠMan": 3193,
      "Ġce": 3194,
      "Ġsoft": 3195,
      "char": 3196,
      "Ġcharge": 3197,
      "Ġgot": 3198,
      "ĠApp": 3199,
      "Ġmor": 3200,
      "duc": 3201,
      "Ġmotion": 3202,
      "ĠStudents": 3203,
      "cks": 3204,
      "ĠNot": 3205,
      "Ġexactly": 3206,
      "Ġsustain": 3207,
      "yl": 3208,
      "Ġwarm": 3209,
      "Ġbott": 3210,
      "Ġrules": 3211,
      "irm": 3212,
      "itch": 3213,
      "Ġ===": 3214,
      "bl": 3215,
      "itary": 3216,
      "æķ": 3217,
      "thern": 3218,
      "Ġlat": 3219,
      "åı": 3220,
      "Ġstarted": 3221,
      "Con": 3222,
      "ĠDo": 3223,
      "Ġstar": 3224,
      "Ġkids": 3225,
      "75": 3226,
      "Ġleading": 3227,
      "Ġharm": 3228,
      "Ġthus": 3229,
      "Ġcard": 3230,
      "Ġfarm": 3231,
      "wor": 3232,
      "Ġcomponents": 3233,
      "Ġdivided": 3234,
      "ĠAm": 3235,
      "Ġface": 3236,
      "Ġskin": 3237,
      "Ġinfluence": 3238,
      "Ġever": 3239,
      "Ġadj": 3240,
      "Ġimportance": 3241,
      "Ġquickly": 3242,
      "Ġattempt": 3243,
      "style": 3244,
      "ached": 3245,
      "Ġtypically": 3246,
      "Ġemerg": 3247,
      "Ġbit": 3248,
      "Ġwall": 3249,
      "Re": 3250,
      "ĠMed": 3251,
      "Ġoppos": 3252,
      "ector": 3253,
      "ided": 3254,
      "zz": 3255,
      "Ġdeveloping": 3256,
      "Ġmiddle": 3257,
      "Qu": 3258,
      "}}": 3259,
      "Ġcrucial": 3260,
      "ĠJohn": 3261,
      "eters": 3262,
      "Ġparents": 3263,
      "Ġsearch": 3264,
      "Ġmedical": 3265,
      "Ġpublished": 3266,
      "Ġremov": 3267,
      "aily": 3268,
      "Ġpopular": 3269,
      "ey": 3270,
      "Ġseem": 3271,
      "AN": 3272,
      "Ġbehavi": 3273,
      "Ġcateg": 3274,
      "Ġsubt": 3275,
      "Ġheav": 3276,
      "Ġdepend": 3277,
      "Ġsort": 3278,
      "can": 3279,
      "EN": 3280,
      "Ġdifferences": 3281,
      "Ġachieve": 3282,
      "Ġdegrees": 3283,
      "Ġund": 3284,
      "Ġprogress": 3285,
      "Ġancient": 3286,
      "itation": 3287,
      "Ġexcept": 3288,
      "Ġmarket": 3289,
      "nov": 3290,
      "Un": 3291,
      "Ġtheore": 3292,
      "ctors": 3293,
      "Ġcreating": 3294,
      "ĠAb": 3295,
      "IS": 3296,
      "ĠGu": 3297,
      "Ã©": 3298,
      "Ġbuilt": 3299,
      "Ġexpected": 3300,
      "Ġrequires": 3301,
      "ederal": 3302,
      "Ġbra": 3303,
      "Ġscientific": 3304,
      "eration": 3305,
      "odies": 3306,
      "ĠSince": 3307,
      "ĠFirst": 3308,
      "cell": 3309,
      "Ġones": 3310,
      "ĠPe": 3311,
      "ĠMany": 3312,
      "ography": 3313,
      "rig": 3314,
      "display": 3315,
      "():": 3316,
      "Ġchallenges": 3317,
      "Ġmoment": 3318,
      "Ġcentral": 3319,
      "ĠAfrican": 3320,
      "ĠUse": 3321,
      "ĠFrom": 3322,
      "Ġtrees": 3323,
      "Ġservices": 3324,
      "Ġwild": 3325,
      "Ġchoose": 3326,
      "load": 3327,
      "){": 3328,
      "Ġclos": 3329,
      "Ġexpression": 3330,
      "Ġmap": 3331,
      "Ġsleep": 3332,
      "Ġperformance": 3333,
      "ĠClass": 3334,
      "Ġparam": 3335,
      "Ġprice": 3336,
      "ung": 3337,
      "uck": 3338,
      "Ġsurround": 3339,
      "ĠEach": 3340,
      "Ġclassroom": 3341,
      "Ġdeal": 3342,
      "Ġplane": 3343,
      "ĠState": 3344,
      "Ġincluded": 3345,
      "Ġthous": 3346,
      "Ġthreat": 3347,
      "Ġdeb": 3348,
      "Ġcommunities": 3349,
      "ĉĉ": 3350,
      "Ġparticularly": 3351,
      "ĠPart": 3352,
      "Ġlargest": 3353,
      "Ġ21": 3354,
      "izes": 3355,
      "Ġmanagement": 3356,
      "Ġsuff": 3357,
      "ners": 3358,
      "Ġsimpl": 3359,
      "test": 3360,
      "Ġste": 3361,
      "ĠGree": 3362,
      "Ġcorresp": 3363,
      "ĠIndian": 3364,
      "Ġcolle": 3365,
      "Ġsupply": 3366,
      "Ġgrade": 3367,
      "Ġapplied": 3368,
      "Ġdiagn": 3369,
      "known": 3370,
      "Ð½": 3371,
      "ĠDNA": 3372,
      "ĠGra": 3373,
      "ĠKing": 3374,
      "ech": 3375,
      "clude": 3376,
      "lor": 3377,
      "water": 3378,
      "ĠComp": 3379,
      "ellow": 3380,
      "ĠYour": 3381,
      "Ġinvolves": 3382,
      "âĪ": 3383,
      "rong": 3384,
      "outhern": 3385,
      "35": 3386,
      "ops": 3387,
      "Ġ->": 3388,
      "Ġwaste": 3389,
      "Ġitems": 3390,
      "Ġreach": 3391,
      "Ġaim": 3392,
      "Ġearl": 3393,
      "ildren": 3394,
      "Ġnull": 3395,
      "Ġbeginning": 3396,
      "node": 3397,
      "Ġbehind": 3398,
      "Ġinvestig": 3399,
      "Ġjob": 3400,
      "rought": 3401,
      "Ġpsych": 3402,
      "ĠFrench": 3403,
      "ober": 3404,
      "Ġdom": 3405,
      "Ġadded": 3406,
      "iers": 3407,
      "Ġnote": 3408,
      "Ġgetting": 3409,
      "Ġfile": 3410,
      "ometry": 3411,
      "plication": 3412,
      "Ġaccur": 3413,
      "ley": 3414,
      "Ġeye": 3415,
      "Ind": 3416,
      "Ġeth": 3417,
      "ĠIntern": 3418,
      "Ġimag": 3419,
      "ades": 3420,
      "ĠJap": 3421,
      "icles": 3422,
      "Ġmultip": 3423,
      "Ġapplications": 3424,
      "Ġinfection": 3425,
      "Ġparticles": 3426,
      "ĠSystem": 3427,
      "Ġdate": 3428,
      "Ġsex": 3429,
      "Ġdimens": 3430,
      "Ġbacteria": 3431,
      "plit": 3432,
      "ocks": 3433,
      "Ġblock": 3434,
      "Ġstructures": 3435,
      "Ġproperty": 3436,
      "raw": 3437,
      "Let": 3438,
      "Ġdamage": 3439,
      "Ġtool": 3440,
      "Ġproport": 3441,
      "active": 3442,
      "Ġreview": 3443,
      "Ġatmosphere": 3444,
      "Ġvideo": 3445,
      "Ġrepe": 3446,
      "Ġboard": 3447,
      "ustom": 3448,
      "allel": 3449,
      "On": 3450,
      "Ġhealthy": 3451,
      "Ġbooks": 3452,
      "hib": 3453,
      "Ġaware": 3454,
      "vey": 3455,
      "iles": 3456,
      "Ġwhose": 3457,
      "Ġoxygen": 3458,
      "abet": 3459,
      "Ġuser": 3460,
      "Ġquite": 3461,
      "Ġdemand": 3462,
      "/**": 3463,
      "Ġcompared": 3464,
      "Ġrain": 3465,
      "Ġappropriate": 3466,
      "Ġ23": 3467,
      "Ġrect": 3468,
      "But": 3469,
      "ĠRead": 3470,
      "aly": 3471,
      "Ġadditional": 3472,
      "Ġelectron": 3473,
      "Ġtopic": 3474,
      "Ġlack": 3475,
      "Ġestablished": 3476,
      "Ġindustr": 3477,
      "Ġhypot": 3478,
      "Ġthera": 3479,
      "rated": 3480,
      "Ġtransport": 3481,
      "ĠCons": 3482,
      "65": 3483,
      "Ġstraight": 3484,
      "ĠCal": 3485,
      "orther": 3486,
      "ĠTherefore": 3487,
      "Ġresistance": 3488,
      "Ġbenefits": 3489,
      "Ġremains": 3490,
      "Ġsituation": 3491,
      "Ġlate": 3492,
      "amed": 3493,
      "Ġstatement": 3494,
      "æķ°": 3495,
      "pite": 3496,
      "Ġtiss": 3497,
      "Ġrecent": 3498,
      "Ġconnect": 3499,
      "Ġfast": 3500,
      "Ġdecision": 3501,
      "ĠAug": 3502,
      "Ġcover": 3503,
      "Ġcapital": 3504,
      "Ġ22": 3505,
      "Ġmathematical": 3506,
      "åĪ": 3507,
      "Ġvar": 3508,
      "ĠUnder": 3509,
      "Ġfraction": 3510,
      "ription": 3511,
      "These": 3512,
      "Ġexperiment": 3513,
      "mal": 3514,
      "ingu": 3515,
      "At": 3516,
      "Int": 3517,
      "Ġcancer": 3518,
      "Cl": 3519,
      "resents": 3520,
      "ha": 3521,
      "ĠTrue": 3522,
      "asons": 3523,
      "Ġmathematics": 3524,
      "ĠChe": 3525,
      "uff": 3526,
      "IT": 3527,
      "Ġagricult": 3528,
      "son": 3529,
      "Ġvacc": 3530,
      "Ġvoltage": 3531,
      "cont": 3532,
      "Â°": 3533,
      "Ġaud": 3534,
      "Ġcircuit": 3535,
      "igen": 3536,
      "Ġmeasures": 3537,
      "Ġsil": 3538,
      "ĠJan": 3539,
      "Ġcoordin": 3540,
      "Ġdyn": 3541,
      "Ġremember": 3542,
      "Ġindependent": 3543,
      "Ġenh": 3544,
      "Ġtraditional": 3545,
      "Ġincreases": 3546,
      "ĠNo": 3547,
      "Ġmid": 3548,
      "Ġfav": 3549,
      "ED": 3550,
      "ufact": 3551,
      "ously": 3552,
      "Ġtests": 3553,
      "Ġexperiences": 3554,
      "Array": 3555,
      "Ġmodels": 3556,
      "Ġbring": 3557,
      "Ġpractices": 3558,
      "Ġwa": 3559,
      "Ġpurpose": 3560,
      "Ġletter": 3561,
      "Ġrecomm": 3562,
      "Ġhund": 3563,
      "ĠCalcul": 3564,
      "Ġsold": 3565,
      "Ġfrequency": 3566,
      "Ġconstit": 3567,
      "Ġsentence": 3568,
      "ĠList": 3569,
      "ĠThus": 3570,
      "}\\": 3571,
      "Ġattack": 3572,
      "Ġbelieve": 3573,
      "Ġseg": 3574,
      "Ġtrade": 3575,
      "Ġadvant": 3576,
      "yond": 3577,
      "Ġrout": 3578,
      "Ġclean": 3579,
      "inally": 3580,
      "ĠAg": 3581,
      "Ġoverall": 3582,
      "ĠLevel": 3583,
      "lation": 3584,
      "Ġkg": 3585,
      "Ġload": 3586,
      "Ġlimited": 3587,
      "orthern": 3588,
      "Ġdegree": 3589,
      "eed": 3590,
      "Ġnorth": 3591,
      "ĠEduc": 3592,
      "Ġexc": 3593,
      "Ġmaximum": 3594,
      "Ġbox": 3595,
      "anish": 3596,
      "Ġsymbol": 3597,
      "Ġsets": 3598,
      "stry": 3599,
      "Ġbasis": 3600,
      "Ġincor": 3601,
      "Ġlaws": 3602,
      "Ġsafe": 3603,
      "ĠOther": 3604,
      "Ġplaces": 3605,
      "\":": 3606,
      "$.": 3607,
      "Ġwebs": 3608,
      "Ġerror": 3609,
      "onal": 3610,
      "oin": 3611,
      "Ġfront": 3612,
      "Ġpow": 3613,
      "Ġclaim": 3614,
      "Ġanswers": 3615,
      "Ġgrowing": 3616,
      "ĠâĢ¢": 3617,
      "Ġtend": 3618,
      "acters": 3619,
      "Ġequival": 3620,
      "hel": 3621,
      "Ġsevere": 3622,
      "ĠAfrica": 3623,
      "Ġfat": 3624,
      "Ġ--": 3625,
      "Ġitem": 3626,
      "Ġdescribe": 3627,
      "Ġrepresents": 3628,
      "Ġcit": 3629,
      "Ġfoss": 3630,
      "abilities": 3631,
      "Ġliqu": 3632,
      "otal": 3633,
      "umb": 3634,
      "stitution": 3635,
      "ĠMost": 3636,
      "Ġcommonly": 3637,
      "Ġissue": 3638,
      "ĠAre": 3639,
      "ĠSchool": 3640,
      "ued": 3641,
      "Ġstru": 3642,
      "Ġchoice": 3643,
      "Ġillust": 3644,
      "Ġdescribed": 3645,
      "Ġocean": 3646,
      "Ġ<=": 3647,
      "Ġangles": 3648,
      "Ġbalance": 3649,
      "Ġspeak": 3650,
      "Ġcarry": 3651,
      "Ġletters": 3652,
      "Ġreve": 3653,
      "Ġcool": 3654,
      "ĠAlthough": 3655,
      "mb": 3656,
      "Ġefficient": 3657,
      "Ġschools": 3658,
      "Ġq": 3659,
      "__(": 3660,
      "Ġstarting": 3661,
      "Ġmiles": 3662,
      "\");": 3663,
      "uge": 3664,
      "ken": 3665,
      "urch": 3666,
      "AL": 3667,
      "27": 3668,
      "resh": 3669,
      "Ġrates": 3670,
      "rt": 3671,
      "Ġcm": 3672,
      "Ġgoal": 3673,
      "Ġaffected": 3674,
      "'ll": 3675,
      "itis": 3676,
      "displaystyle": 3677,
      "board": 3678,
      "Ġstage": 3679,
      "ĠHistory": 3680,
      "Ġful": 3681,
      "ceed": 3682,
      "izations": 3683,
      "Ġbroad": 3684,
      "ĠMod": 3685,
      "Ġoffer": 3686,
      "rror": 3687,
      "ĠDes": 3688,
      "ĠGerman": 3689,
      "Ġcompos": 3690,
      "Ġprime": 3691,
      "ĠJew": 3692,
      "ĠCo": 3693,
      "Ġdiscovered": 3694,
      "Ġrelationships": 3695,
      "Ġdru": 3696,
      "Ġpiece": 3697,
      "Ġcompre": 3698,
      "more": 3699,
      "Ġleaves": 3700,
      "Ġwood": 3701,
      "Ġfoot": 3702,
      "Ġcycle": 3703,
      "28": 3704,
      "Ġprep": 3705,
      "Ġrise": 3706,
      "Ġhoriz": 3707,
      "Ġprobably": 3708,
      "Ġbirds": 3709,
      "Ġapply": 3710,
      "Ġregions": 3711,
      "lim": 3712,
      "Ġprior": 3713,
      "Ġactive": 3714,
      "Ġrapid": 3715,
      "Im": 3716,
      "ancial": 3717,
      "90": 3718,
      "IC": 3719,
      "ĠMon": 3720,
      "};": 3721,
      "Ġten": 3722,
      "Ġcompany": 3723,
      "Ġsolid": 3724,
      "ĠPhys": 3725,
      "Se": 3726,
      "ĠChar": 3727,
      "Ġpatients": 3728,
      "Ġblue": 3729,
      "Ġweather": 3730,
      "Ġopportunities": 3731,
      "roduction": 3732,
      "Ġconstruction": 3733,
      "egin": 3734,
      "ister": 3735,
      "Ġimages": 3736,
      "Ġmachine": 3737,
      "Ġfuel": 3738,
      "ĠDr": 3739,
      "Here": 3740,
      "ĠAmericans": 3741,
      "Ġproviding": 3742,
      "sum": 3743,
      "Ġur": 3744,
      "term": 3745,
      "Ġfollows": 3746,
      "Ġcommunic": 3747,
      "Ġlocation": 3748,
      "Ġmedic": 3749,
      "Ġult": 3750,
      "phas": 3751,
      "cules": 3752,
      "sol": 3753,
      "ension": 3754,
      "count": 3755,
      "idge": 3756,
      "ĠAustral": 3757,
      "Ġhighly": 3758,
      "Ġperfect": 3759,
      "Ġpicture": 3760,
      "Ġwin": 3761,
      "Ġfit": 3762,
      "aff": 3763,
      "rs": 3764,
      "pty": 3765,
      "Ġlocated": 3766,
      "dom": 3767,
      "åħ": 3768,
      "Ġ198": 3769,
      "vention": 3770,
      "Ġbul": 3771,
      "ĠOf": 3772,
      "Ġwrong": 3773,
      "Ġhands": 3774,
      "Ġmanufact": 3775,
      "ĠYork": 3776,
      "Ġoperations": 3777,
      "Ġdiseases": 3778,
      "Ġinstr": 3779,
      "Ġleaders": 3780,
      "ls": 3781,
      "anation": 3782,
      "String": 3783,
      "tes": 3784,
      "ĠDef": 3785,
      "Ġgenetic": 3786,
      "Ġnames": 3787,
      "Ġalgebra": 3788,
      "ĠEuropean": 3789,
      "iot": 3790,
      "Ġcharacteristics": 3791,
      "Ġcos": 3792,
      "oles": 3793,
      "Ġprograms": 3794,
      "Ġlif": 3795,
      "Ġteach": 3796,
      "Ġgoes": 3797,
      "ologies": 3798,
      "att": 3799,
      "([": 3800,
      "Ġpoor": 3801,
      "ding": 3802,
      "Ġcoast": 3803,
      "Ġvoc": 3804,
      "ought": 3805,
      "Ġlabor": 3806,
      "ĠResearch": 3807,
      "ĠEqu": 3808,
      "Of": 3809,
      "Ġallowed": 3810,
      "stitute": 3811,
      "Ġvary": 3812,
      "cosystem": 3813,
      "Ġindustry": 3814,
      "Ġviol": 3815,
      "Ġfinding": 3816,
      "Ġparallel": 3817,
      "Ġhistorical": 3818,
      "Ġreaction": 3819,
      "omial": 3820,
      "Ġdark": 3821,
      "ilos": 3822,
      "Ġdistinct": 3823,
      "Ġkm": 3824,
      "Ġhot": 3825,
      "26": 3826,
      "Ġsn": 3827,
      "Ġdaily": 3828,
      "oration": 3829,
      "Ġtask": 3830,
      "Ġextra": 3831,
      "Ġpowerful": 3832,
      "Ġestablish": 3833,
      "ĠWill": 3834,
      "ios": 3835,
      "Ġfair": 3836,
      "Ġfru": 3837,
      "Ġmel": 3838,
      "used": 3839,
      "ĠChina": 3840,
      "'m": 3841,
      "do": 3842,
      "ĠÏ": 3843,
      "standing": 3844,
      "Ġhappens": 3845,
      "tery": 3846,
      "Ġ!=": 3847,
      "Ġwave": 3848,
      "Ġfire": 3849,
      "oud": 3850,
      "Ġlearned": 3851,
      "Ġmount": 3852,
      "Ġsolving": 3853,
      "Ġ/**": 3854,
      "Ġeasier": 3855,
      "Ġbottom": 3856,
      "riculum": 3857,
      "ratic": 3858,
      "ãĢ": 3859,
      "joy": 3860,
      "Ġstri": 3861,
      "itable": 3862,
      "comes": 3863,
      "ĠGreat": 3864,
      "Ġaff": 3865,
      "ĠAnt": 3866,
      "uzz": 3867,
      "ĠReg": 3868,
      "encies": 3869,
      "ĠApr": 3870,
      "Ġemb": 3871,
      "Ġpolicy": 3872,
      "Ġalthough": 3873,
      "bject": 3874,
      "ocial": 3875,
      "ĠChall": 3876,
      "Ġdisplay": 3877,
      "ĠAlso": 3878,
      "Ġimmedi": 3879,
      "console": 3880,
      "erate": 3881,
      "ĠWhy": 3882,
      "Ġmedia": 3883,
      "Ġconsequ": 3884,
      "Ġperspect": 3885,
      "Ġmeasured": 3886,
      "He": 3887,
      "Ġinfin": 3888,
      "Ġacid": 3889,
      "Ġconnected": 3890,
      "onds": 3891,
      "Ġ27": 3892,
      "ulated": 3893,
      "Ġlost": 3894,
      "Ġessay": 3895,
      "Ġsouth": 3896,
      "âĢĿ.": 3897,
      "Ġeat": 3898,
      "Ġprivate": 3899,
      "otes": 3900,
      "Ġservice": 3901,
      "'ve": 3902,
      "RE": 3903,
      "ighb": 3904,
      "Ġinteger": 3905,
      "Ġtrying": 3906,
      "Ġresponsible": 3907,
      "ĠGod": 3908,
      "edom": 3909,
      "Ġcorrespond": 3910,
      "Ġargument": 3911,
      "Ġlove": 3912,
      "oice": 3913,
      "Ġproced": 3914,
      "Ġoil": 3915,
      "Ġtemperatures": 3916,
      "48": 3917,
      "Ġupper": 3918,
      "Ġevolution": 3919,
      "off": 3920,
      "Ġpick": 3921,
      "gy": 3922,
      "Ġplaced": 3923,
      "Ġvalid": 3924,
      "ST": 3925,
      "#####": 3926,
      "Ġexpand": 3927,
      "Ġpropos": 3928,
      "ĠOct": 3929,
      "Ġrefers": 3930,
      "orage": 3931,
      "amental": 3932,
      "ĠPres": 3933,
      "Ġmilitary": 3934,
      "Ġbeyond": 3935,
      "Ġround": 3936,
      "Ġfig": 3937,
      "Ġpack": 3938,
      "Ġsett": 3939,
      "asks": 3940,
      "Ġ[]": 3941,
      "change": 3942,
      "pec": 3943,
      "istry": 3944,
      "Ġcosts": 3945,
      "Ġcharacters": 3946,
      "Ġstrength": 3947,
      "Ġdevices": 3948,
      "Ġ90": 3949,
      "Ġcompar": 3950,
      "Ġtrack": 3951,
      "Ġpoly": 3952,
      "Ġabsor": 3953,
      "overy": 3954,
      "Ġgames": 3955,
      "conds": 3956,
      "Ġisn": 3957,
      "Ġstars": 3958,
      "36": 3959,
      "32": 3960,
      "Ġfields": 3961,
      "())": 3962,
      "Ġapplication": 3963,
      "www": 3964,
      "ying": 3965,
      "Ġ28": 3966,
      "((": 3967,
      "Ġscre": 3968,
      "uary": 3969,
      "Ġpy": 3970,
      "Ġeconomy": 3971,
      "Ġobserved": 3972,
      "Ġpan": 3973,
      "Ġlayer": 3974,
      "eks": 3975,
      "Ġecosystem": 3976,
      "Ġdigital": 3977,
      "ai": 3978,
      "init": 3979,
      "oxide": 3980,
      "Ġstay": 3981,
      "onic": 3982,
      "itect": 3983,
      "Ġexec": 3984,
      "ĠInst": 3985,
      "AC": 3986,
      "Ġvia": 3987,
      "avery": 3988,
      "Ġmatch": 3989,
      "itle": 3990,
      "ĠLaw": 3991,
      "ĠExpl": 3992,
      "Ġstrugg": 3993,
      "bal": 3994,
      "Ġheld": 3995,
      "Ġconflic": 3996,
      "čĊĠĠĠĠĠĠĠĠĠĠĠ": 3997,
      "rote": 3998,
      "ternal": 3999,
      "qrt": 4000,
      "Ġalgorithm": 4001,
      "And": 4002,
      "ĠÃĹ": 4003,
      "Ġdouble": 4004,
      "Ġresulting": 4005,
      "\";": 4006,
      "Ġnutri": 4007,
      "Ġweak": 4008,
      "year": 4009,
      "enth": 4010,
      "crete": 4011,
      "Ġexpos": 4012,
      "Ġsus": 4013,
      "Ġdiet": 4014,
      "gar": 4015,
      "Ġque": 4016,
      "Res": 4017,
      "With": 4018,
      "Ġphen": 4019,
      "chol": 4020,
      "Ġrob": 4021,
      "29": 4022,
      "Ġmention": 4023,
      "Ġdepending": 4024,
      "Ġidentity": 4025,
      "Ġreference": 4026,
      "ĠRec": 4027,
      "inks": 4028,
      "len": 4029,
      "ĠInter": 4030,
      "Ġeverything": 4031,
      "rops": 4032,
      "Ġconsole": 4033,
      "Ġroom": 4034,
      "Ġinterpret": 4035,
      "Ġenter": 4036,
      "haps": 4037,
      "Ġinstit": 4038,
      "Ġep": 4039,
      "Ġwalk": 4040,
      "Ġmolecules": 4041,
      "ä»": 4042,
      "Ġhost": 4043,
      "ĠHis": 4044,
      "Ġcustom": 4045,
      "Ġmagnetic": 4046,
      "ĠHel": 4047,
      ")=": 4048,
      "Ġactual": 4049,
      "Ġcitiz": 4050,
      "orders": 4051,
      "Ġacceleration": 4052,
      "mission": 4053,
      "ino": 4054,
      "Ġgrad": 4055,
      "hest": 4056,
      "En": 4057,
      "Ġactions": 4058,
      "ĠDuring": 4059,
      "Ġconvert": 4060,
      "Ġutil": 4061,
      "ĠFeb": 4062,
      "Ġaspects": 4063,
      "Ġmig": 4064,
      "Ġgets": 4065,
      "ä¸ª": 4066,
      "book": 4067,
      "ĠBecause": 4068,
      "ica": 4069,
      "ows": 4070,
      "usion": 4071,
      "Name": 4072,
      "Ġofficial": 4073,
      "Ġwaves": 4074,
      "ĠâĪĴ": 4075,
      "Ġcam": 4076,
      "Ġfight": 4077,
      "Ġking": 4078,
      "Ġ&&": 4079,
      "aught": 4080,
      "ĠAc": 4081,
      "ION": 4082,
      "ĠRoman": 4083,
      "Ġ26": 4084,
      "fficiency": 4085,
      "Ġdry": 4086,
      "Ġdat": 4087,
      "ĠHealth": 4088,
      "see": 4089,
      "Ġveget": 4090,
      "Ġbran": 4091,
      "Ġburn": 4092,
      "Ġnation": 4093,
      "uth": 4094,
      "Ġrare": 4095,
      "Ġefforts": 4096,
      "ret": 4097,
      "Ġsuccessful": 4098,
      "Ġreduced": 4099,
      "ĠTest": 4100,
      "Ġinsp": 4101,
      "Ġnight": 4102,
      "Ġchanged": 4103,
      "--------------------------------": 4104,
      "Ġcompletely": 4105,
      "ags": 4106,
      "46": 4107,
      "]:": 4108,
      "Ġtrig": 4109,
      "Ġdensity": 4110,
      "ĠCong": 4111,
      "Ġspeech": 4112,
      "Ġcollection": 4113,
      "push": 4114,
      "reen": 4115,
      "ĠReturn": 4116,
      "ĠProble": 4117,
      "force": 4118,
      "Ġfriends": 4119,
      "Ġroll": 4120,
      "Ġterrit": 4121,
      "Ġserious": 4122,
      "osa": 4123,
      "Ġtransfer": 4124,
      "zing": 4125,
      "ĠSolution": 4126,
      "abul": 4127,
      "Ġnp": 4128,
      "ilies": 4129,
      "ĠSun": 4130,
      "');": 4131,
      "Ġfinancial": 4132,
      "Ġcollabor": 4133,
      "ĠTra": 4134,
      "ognitive": 4135,
      "ĠDay": 4136,
      "Ġenjoy": 4137,
      "irect": 4138,
      "Ġagree": 4139,
      "Ġbirth": 4140,
      "Ġfollowed": 4141,
      "ĠEngland": 4142,
      "iment": 4143,
      "Ġinternational": 4144,
      "ĠBC": 4145,
      "Ġbur": 4146,
      "rows": 4147,
      "Ġchanging": 4148,
      "anger": 4149,
      "Ġfluid": 4150,
      "fs": 4151,
      "Ġdomin": 4152,
      "Ġmut": 4153,
      "Ġeyes": 4154,
      "iding": 4155,
      "Ġresist": 4156,
      "Ġbreat": 4157,
      "iverse": 4158,
      "Ġopposite": 4159,
      "edia": 4160,
      "inese": 4161,
      "ĠMin": 4162,
      "Ġcold": 4163,
      "minist": 4164,
      "Sh": 4165,
      "Ġseason": 4166,
      "Ġtopics": 4167,
      "Ġpassed": 4168,
      "Ġdivide": 4169,
      "Ġinteresting": 4170,
      "life": 4171,
      "Ġemphas": 4172,
      "Ġkilog": 4173,
      "ception": 4174,
      "Ġrelatively": 4175,
      "imin": 4176,
      "Ġprinciples": 4177,
      "Ġcapacity": 4178,
      "king": 4179,
      "na": 4180,
      "ĠCur": 4181,
      "Ġseems": 4182,
      "Ġinnov": 4183,
      "Ġasked": 4184,
      "roup": 4185,
      "Ġacqu": 4186,
      "Ġnotes": 4187,
      "Ġdepends": 4188,
      "Ġcomponent": 4189,
      "Ġrepresented": 4190,
      "Ġequivalent": 4191,
      "uk": 4192,
      "è¿": 4193,
      "åĲ": 4194,
      "Ġcommit": 4195,
      "cip": 4196,
      "Ġcand": 4197,
      "ĠDep": 4198,
      "Ġexercise": 4199,
      "ĠÂłĠÂł": 4200,
      "Ġcounter": 4201,
      "Ġradiation": 4202,
      "Ġpounds": 4203,
      "Ġaxis": 4204,
      "Ġdynam": 4205,
      "ords": 4206,
      "Ġadop": 4207,
      "orial": 4208,
      "lean": 4209,
      "ĠMy": 4210,
      "Ġanything": 4211,
      "Ġgender": 4212,
      "Ġhttps": 4213,
      "Ġtraining": 4214,
      "date": 4215,
      "Ġsounds": 4216,
      "iny": 4217,
      "Ġmiss": 4218,
      "efore": 4219,
      "Ġoperation": 4220,
      "Ġcards": 4221,
      "Ġshapes": 4222,
      "Ġliquid": 4223,
      "Ġinj": 4224,
      "Ġeveryone": 4225,
      "ĠUsing": 4226,
      "Ġradius": 4227,
      "Ġfixed": 4228,
      "Ġstore": 4229,
      "Ġconsists": 4230,
      "Ġdivision": 4231,
      "Ð»": 4232,
      "Ġchance": 4233,
      "Ġ80": 4234,
      "Ġreligious": 4235,
      "ET": 4236,
      "ĠChallenge": 4237,
      "ĠUnion": 4238,
      "Ġmix": 4239,
      "volution": 4240,
      "uration": 4241,
      "Ġbrought": 4242,
      "Ġemissions": 4243,
      "ĠTrans": 4244,
      "Ġaccom": 4245,
      "ifying": 4246,
      "Ġcir": 4247,
      "house": 4248,
      "æľ": 4249,
      "Ġraise": 4250,
      "Ġcomprehens": 4251,
      "Ġchallenge": 4252,
      "ĠRuss": 4253,
      "exic": 4254,
      "uman": 4255,
      "artment": 4256,
      "Is": 4257,
      "Ġhour": 4258,
      "Ġdiam": 4259,
      "Ġpatient": 4260,
      "Number": 4261,
      "Ġ**": 4262,
      "Ġsoon": 4263,
      "Ġacad": 4264,
      "edu": 4265,
      "Ġopportunity": 4266,
      "uries": 4267,
      "Ġforward": 4268,
      "Ġeffectively": 4269,
      "pi": 4270,
      "rie": 4271,
      "Ġdecisions": 4272,
      "Ġstim": 4273,
      "Ġsec": 4274,
      "Why": 4275,
      "Ġwent": 4276,
      "Ġreasons": 4277,
      "iable": 4278,
      "abulary": 4279,
      "Ġmis": 4280,
      "Ġearlier": 4281,
      "ellig": 4282,
      "Ġplayer": 4283,
      "Ġmeasurement": 4284,
      "++)": 4285,
      "ĠArt": 4286,
      "Ġadults": 4287,
      "Ġseparate": 4288,
      "Ġapproximately": 4289,
      "max": 4290,
      "ĠFalse": 4291,
      "Ġslope": 4292,
      "Ġcombination": 4293,
      "Ġyourself": 4294,
      "Ġcontroll": 4295,
      "34": 4296,
      "uses": 4297,
      "ĠHar": 4298,
      "ĠCount": 4299,
      "Ġnav": 4300,
      "ĠTheir": 4301,
      "è¡": 4302,
      "ĠAccording": 4303,
      "ĠDec": 4304,
      "Ġmeters": 4305,
      "amm": 4306,
      "Ġegg": 4307,
      "ĠSub": 4308,
      "Ġcomplic": 4309,
      "Ġ2010": 4310,
      "Ġhappen": 4311,
      "Ġbodies": 4312,
      "Ġbelieved": 4313,
      "ĠTwo": 4314,
      "Ġdecimal": 4315,
      "Ġvers": 4316,
      "ran": 4317,
      "Ġreferred": 4318,
      "uly": 4319,
      "Ġpopulations": 4320,
      "ĠAddition": 4321,
      "Ġimmune": 4322,
      "Ġresource": 4323,
      "Ġphilos": 4324,
      "ĠSm": 4325,
      "ĠEducation": 4326,
      "void": 4327,
      "Ġwrote": 4328,
      "Ġoutcomes": 4329,
      "},": 4330,
      "ĠGermany": 4331,
      "Ġsoftware": 4332,
      "sin": 4333,
      "Ġcred": 4334,
      "erences": 4335,
      "Ġsafety": 4336,
      "While": 4337,
      "ĠBlack": 4338,
      "tm": 4339,
      "osing": 4340,
      "ference": 4341,
      "Ġremove": 4342,
      "Ġelectrical": 4343,
      "ience": 4344,
      "Ġcore": 4345,
      "ĠSpanish": 4346,
      "Ġ###": 4347,
      "ifically": 4348,
      "oting": 4349,
      "Ġprop": 4350,
      "Ġstories": 4351,
      "Ġprojects": 4352,
      "Stud": 4353,
      "Ġinsect": 4354,
      "ĠGl": 4355,
      "reci": 4356,
      "comp": 4357,
      "inder": 4358,
      "Ġjud": 4359,
      "Ġfractions": 4360,
      "uls": 4361,
      "Ġintroduced": 4362,
      "ĠCour": 4363,
      "ĠLearning": 4364,
      "Ġproof": 4365,
      "site": 4366,
      "Ġcamp": 4367,
      "Ġsignal": 4368,
      "vest": 4369,
      "ĠForm": 4370,
      "ĠWorks": 4371,
      "Ġstream": 4372,
      "However": 4373,
      "Ġvalu": 4374,
      "Ġtesting": 4375,
      "EM": 4376,
      "Pl": 4377,
      "Ġtoward": 4378,
      "ĠEd": 4379,
      "Ġtrib": 4380,
      "ĠMarch": 4381,
      "Ġtechnique": 4382,
      "Ġstandards": 4383,
      "ashing": 4384,
      "Ġtail": 4385,
      "Ġscore": 4386,
      "Ġteeth": 4387,
      "SS": 4388,
      "ĠCivil": 4389,
      "xi": 4390,
      "atin": 4391,
      "$,": 4392,
      "ĠAugust": 4393,
      "ĠJune": 4394,
      "Ġgoals": 4395,
      "Ġdevice": 4396,
      "Ġhorizont": 4397,
      "Ġelif": 4398,
      "bb": 4399,
      "Ġgradu": 4400,
      "Ġdepth": 4401,
      "Ġdetermined": 4402,
      "Ġpieces": 4403,
      "opy": 4404,
      "Ġgold": 4405,
      "Ġversion": 4406,
      "leg": 4407,
      "Ġprotection": 4408,
      "Ġbab": 4409,
      "Ġautom": 4410,
      "Ġsituations": 4411,
      "ypes": 4412,
      "Some": 4413,
      "omb": 4414,
      "Ġgoods": 4415,
      "Ġsites": 4416,
      "ĠMexic": 4417,
      "olute": 4418,
      "ĠOver": 4419,
      "Ġdisorder": 4420,
      "Ġnamed": 4421,
      "ĠRem": 4422,
      "Ġtim": 4423,
      "ĠChinese": 4424,
      ")(": 4425,
      "Ġderiv": 4426,
      "Ġcou": 4427,
      "ĠWest": 4428,
      "Ġeight": 4429,
      "Ġsigns": 4430,
      "Ġincome": 4431,
      "urban": 4432,
      "oday": 4433,
      "Ġedge": 4434,
      "Ġvirt": 4435,
      "Ġ2012": 4436,
      "curity": 4437,
      "Ġinternal": 4438,
      "39": 4439,
      "amb": 4440,
      "Ġgiving": 4441,
      "ptember": 4442,
      "Ġdiverse": 4443,
      "Ġsaw": 4444,
      "Ġgal": 4445,
      "Ġcompare": 4446,
      "Ġformation": 4447,
      "Ġrich": 4448,
      "Ġdetect": 4449,
      "ĠMus": 4450,
      "rome": 4451,
      "Ġelectricity": 4452,
      "antic": 4453,
      "Ġgravity": 4454,
      "Ġcurve": 4455,
      "Ġbinary": 4456,
      "Ġprotein": 4457,
      "Ġfoods": 4458,
      "Ġcontribute": 4459,
      "pan": 4460,
      "ĠPy": 4461,
      "Ġrevolution": 4462,
      "Ġstatus": 4463,
      "Ġfundamental": 4464,
      "Ġdetails": 4465,
      "stronom": 4466,
      "illing": 4467,
      "Ġtou": 4468,
      "cret": 4469,
      "Ġweeks": 4470,
      "Ġeducational": 4471,
      "Ġinvolve": 4472,
      "78": 4473,
      "Ġveh": 4474,
      "Ġatom": 4475,
      "oe": 4476,
      "include": 4477,
      "oming": 4478,
      "ĠJust": 4479,
      "Ġriver": 4480,
      "Ġcontrast": 4481,
      "ĠPost": 4482,
      "Ġwebsite": 4483,
      "Ġfamilies": 4484,
      "Ġiron": 4485,
      "Ġliterature": 4486,
      "0000": 4487,
      "aters": 4488,
      "Ġspect": 4489,
      "cel": 4490,
      "ads": 4491,
      "ĠRiver": 4492,
      "Ġdefine": 4493,
      "Ġhar": 4494,
      "Ġmultiply": 4495,
      "Ġcry": 4496,
      "ana": 4497,
      "tem": 4498,
      "II": 4499,
      "Ġevol": 4500,
      "Ġneighb": 4501,
      "Ġfloat": 4502,
      "which": 4503,
      "Ġaccurate": 4504,
      "faces": 4505,
      "Ġmolec": 4506,
      "ĠïĢ": 4507,
      "ä¸Ģ": 4508,
      "roph": 4509,
      "Ã¡": 4510,
      "iest": 4511,
      "ĠRel": 4512,
      "Ġpossib": 4513,
      "ĠCanada": 4514,
      "ĠPa": 4515,
      "unch": 4516,
      "Ġassert": 4517,
      "All": 4518,
      "Ġmessage": 4519,
      "****************": 4520,
      "iliar": 4521,
      "Us": 4522,
      "export": 4523,
      "Ġ2017": 4524,
      "Ġmember": 4525,
      "ĠTechn": 4526,
      "));": 4527,
      "Ġfaster": 4528,
      "rief": 4529,
      "Ġsem": 4530,
      "Ġstrategy": 4531,
      "ĠExample": 4532,
      "roduct": 4533,
      "ĠOur": 4534,
      "Ġarchitect": 4535,
      "format": 4536,
      "Ġminimum": 4537,
      "Ġbad": 4538,
      "Ġsetting": 4539,
      "Ġstyle": 4540,
      "Ġconclusion": 4541,
      "Ġemotional": 4542,
      "64": 4543,
      "uild": 4544,
      "Ġreceive": 4545,
      "Ġsmo": 4546,
      "Ġguide": 4547,
      "alities": 4548,
      "Ġfederal": 4549,
      "Ġ2020": 4550,
      "Ġfreedom": 4551,
      "Ġincorpor": 4552,
      "pen": 4553,
      "Ġpresence": 4554,
      "åŃ": 4555,
      "Ġorganisms": 4556,
      "Ġmother": 4557,
      "ãĤ": 4558,
      "ĠThrough": 4559,
      "tical": 4560,
      "Ġrepl": 4561,
      "Ġrespond": 4562,
      "Ġ2016": 4563,
      "Ġradio": 4564,
      "cd": 4565,
      "ado": 4566,
      "Ġphase": 4567,
      "ĠDevelop": 4568,
      "Ġmajority": 4569,
      "Ġallowing": 4570,
      "ĠVir": 4571,
      "Ġworksheets": 4572,
      "Ġreveal": 4573,
      "iform": 4574,
      "Ġroots": 4575,
      "Ġsignificantly": 4576,
      "Error": 4577,
      "Ġbillion": 4578,
      "'.": 4579,
      "Ġindustrial": 4580,
      "Example": 4581,
      "Ġtasks": 4582,
      "38": 4583,
      "Ġadding": 4584,
      "æĺ": 4585,
      "ste": 4586,
      "Ġscen": 4587,
      "Ġlegal": 4588,
      "rem": 4589,
      "Ġdoctor": 4590,
      "Ġeventually": 4591,
      "Ġcontinuous": 4592,
      "From": 4593,
      "Ġcausing": 4594,
      "CT": 4595,
      "ĠGreek": 4596,
      "Ġhope": 4597,
      "ĠNumber": 4598,
      "Ġworked": 4599,
      "Ġdidn": 4600,
      "riction": 4601,
      "med": 4602,
      "isf": 4603,
      "LL": 4604,
      "Ġphysics": 4605,
      "lin": 4606,
      "igned": 4607,
      "swer": 4608,
      "Ġcele": 4609,
      "iring": 4610,
      "alled": 4611,
      "Ġequip": 4612,
      "Ġoccup": 4613,
      "Ġadvanced": 4614,
      "ĠCor": 4615,
      "Ġneut": 4616,
      "05": 4617,
      "begin": 4618,
      "ĠKe": 4619,
      "oined": 4620,
      "ologists": 4621,
      "Ġclasses": 4622,
      "olic": 4623,
      "Value": 4624,
      "Ġguess": 4625,
      "sub": 4626,
      "AM": 4627,
      "ĠPeople": 4628,
      "fl": 4629,
      "Ġthick": 4630,
      "Ġhearing": 4631,
      "Ġempty": 4632,
      "Ġ{}": 4633,
      "Ġforeign": 4634,
      "estic": 4635,
      "erent": 4636,
      "Ġcurrently": 4637,
      "Ġguid": 4638,
      "Ġmotor": 4639,
      "Ġcontinued": 4640,
      "Ġelectrons": 4641,
      "Ġplot": 4642,
      "inking": 4643,
      "Ġdiagram": 4644,
      "Ġwanted": 4645,
      "Ġvaluable": 4646,
      "(\\": 4647,
      "Ġmetal": 4648,
      "Ġinstruction": 4649,
      "Ġbackground": 4650,
      "js": 4651,
      "Ġgave": 4652,
      "estions": 4653,
      "Ġloop": 4654,
      "Ġgenerate": 4655,
      "95": 4656,
      "Ġdiscussion": 4657,
      "ĠProg": 4658,
      "Ġcopy": 4659,
      "After": 4660,
      "ilit": 4661,
      "SE": 4662,
      "Ġ2015": 4663,
      "Ġnearly": 4664,
      "Ġsummer": 4665,
      "Ġlanguages": 4666,
      "Ġvisit": 4667,
      "fort": 4668,
      "Ġdiscover": 4669,
      "Ġmonitor": 4670,
      "IV": 4671,
      "era": 4672,
      "with": 4673,
      "44": 4674,
      "Ġcurriculum": 4675,
      "Ġ2013": 4676,
      "Ġthousands": 4677,
      "Ġ$$\\": 4678,
      "Ġsamples": 4679,
      "Ġoptions": 4680,
      "Ġreceived": 4681,
      "gypt": 4682,
      "Ġvectors": 4683,
      "ava": 4684,
      "Ġdioxide": 4685,
      "Ġwidth": 4686,
      "gin": 4687,
      "ĠEl": 4688,
      "Ġ>>>": 4689,
      "Ġlooks": 4690,
      "Ġdead": 4691,
      "start": 4692,
      "Ġborn": 4693,
      "Ġther": 4694,
      "Ġcub": 4695,
      "Ġinequ": 4696,
      "anging": 4697,
      "Ġapproaches": 4698,
      "Ġprofessional": 4699,
      "Ġdivers": 4700,
      "ometric": 4701,
      ")/": 4702,
      "current": 4703,
      "ycl": 4704,
      "inner": 4705,
      "Ġefficiency": 4706,
      "Ġphenomen": 4707,
      "01": 4708,
      "Ġbeaut": 4709,
      "Ġinches": 4710,
      "Ġreturns": 4711,
      "ä½": 4712,
      "ĠRef": 4713,
      "Ġnative": 4714,
      "exp": 4715,
      "Ġreact": 4716,
      "works": 4717,
      "Ġcitizens": 4718,
      "cast": 4719,
      "ĠChapter": 4720,
      "Ġlinked": 4721,
      "Ġcities": 4722,
      "Ġearn": 4723,
      "ancy": 4724,
      "Ġvertical": 4725,
      "Ġappears": 4726,
      "roll": 4727,
      "Ġcompan": 4728,
      "Ġ45": 4729,
      "ĠApril": 4730,
      "ky": 4731,
      "OT": 4732,
      "Ġspir": 4733,
      "ĠCongress": 4734,
      "[]": 4735,
      "rap": 4736,
      "Ġcontaining": 4737,
      "Ġmagnitude": 4738,
      "ĠSupp": 4739,
      "apers": 4740,
      "Ġnumerous": 4741,
      "37": 4742,
      "iforn": 4743,
      "Ġjoint": 4744,
      "Ġcalculated": 4745,
      "ç»": 4746,
      "arrow": 4747,
      "root": 4748,
      "Ġrace": 4749,
      "Ġmoves": 4750,
      "Ġfeature": 4751,
      "Ġillness": 4752,
      "Ġvoid": 4753,
      "Ġreducing": 4754,
      "Ġantib": 4755,
      "ĠFrance": 4756,
      "Ġfemale": 4757,
      "ĠOnce": 4758,
      "Ġid": 4759,
      "ĠMars": 4760,
      "mitted": 4761,
      "Ġextremely": 4762,
      "Ġ29": 4763,
      "Ġflood": 4764,
      "Ġpollution": 4765,
      "!!": 4766,
      "çĶ": 4767,
      "ĠEven": 4768,
      "31": 4769,
      "Ġcovered": 4770,
      "Ġnovel": 4771,
      "Ġaffects": 4772,
      "äº": 4773,
      "sqrt": 4774,
      "Ġslavery": 4775,
      "Ġhighest": 4776,
      "ĠEast": 4777,
      "rupt": 4778,
      "Ġspring": 4779,
      "Ġoffers": 4780,
      "using": 4781,
      "Ġidentified": 4782,
      "Ġthr": 4783,
      "porary": 4784,
      "cout": 4785,
      "Ġwinter": 4786,
      "ophy": 4787,
      "Ġseconds": 4788,
      "angles": 4789,
      "ĠSum": 4790,
      "Ġsynt": 4791,
      "Ġexisting": 4792,
      "Ġfully": 4793,
      "rid": 4794,
      "ĠMult": 4795,
      "Ġ2018": 4796,
      "Ġcircum": 4797,
      "Ġweb": 4798,
      "XX": 4799,
      "Ġcoe": 4800,
      "Ġleads": 4801,
      "Ġplastic": 4802,
      "Ġhydrogen": 4803,
      "Ġdog": 4804,
      "Ġserve": 4805,
      "Ġmaster": 4806,
      "Ġgard": 4807,
      "Ġurban": 4808,
      "ros": 4809,
      "ests": 4810,
      "ĠCommun": 4811,
      "Ġalternative": 4812,
      "Ġfavor": 4813,
      "dimens": 4814,
      "Ġalone": 4815,
      "Ġ||": 4816,
      "Ġphr": 4817,
      "Ġdestro": 4818,
      "ball": 4819,
      "Ġexternal": 4820,
      "ĠElect": 4821,
      "ĠIts": 4822,
      "Ġ70": 4823,
      "Ġquad": 4824,
      "Ġfindings": 4825,
      "Ġhom": 4826,
      "Ġrelevant": 4827,
      "Ġbenefit": 4828,
      "Ġcommer": 4829,
      "osen": 4830,
      "å®": 4831,
      "ifornia": 4832,
      "Ġchart": 4833,
      "Ġleave": 4834,
      "Ġunc": 4835,
      "Ġmouth": 4836,
      "Ġ2019": 4837,
      "Ġconvers": 4838,
      "Ġexists": 4839,
      "Ġpurch": 4840,
      "anese": 4841,
      "Ġfossil": 4842,
      "ĠEmp": 4843,
      "oted": 4844,
      "ĠTH": 4845,
      "hand": 4846,
      "AD": 4847,
      "}$$": 4848,
      "ony": 4849,
      "Ġlessons": 4850,
      "Tr": 4851,
      "Ġpages": 4852,
      "riting": 4853,
      "plies": 4854,
      "ĠDiff": 4855,
      "Ġdrawing": 4856,
      "Ġsurrounding": 4857,
      "Ġalt": 4858,
      "Ġplease": 4859,
      "Ġvict": 4860,
      "Ġdepos": 4861,
      "Ġquantity": 4862,
      "ĠLine": 4863,
      "Ġ2014": 4864,
      "Ġperiods": 4865,
      "Ġwidely": 4866,
      "---": 4867,
      "Ġhttp": 4868,
      "ĠJanuary": 4869,
      "Ġtransl": 4870,
      "Ġ>=": 4871,
      "Ġdigit": 4872,
      "anges": 4873,
      "Ġhelped": 4874,
      "Ġnit": 4875,
      "Ġinterval": 4876,
      "position": 4877,
      "Ġvision": 4878,
      "Ġdemoc": 4879,
      "Ġtherapy": 4880,
      "pped": 4881,
      "Ġbelong": 4882,
      "eding": 4883,
      "Ġhuge": 4884,
      "Ġnothing": 4885,
      "Ġamounts": 4886,
      "ief": 4887,
      "Ġ35": 4888,
      "66": 4889,
      "ĠChildren": 4890,
      "Ġvit": 4891,
      "Ġec": 4892,
      "Ġworth": 4893,
      "Ġreported": 4894,
      "wide": 4895,
      "Ġformat": 4896,
      "Ġesc": 4897,
      "Ġworkers": 4898,
      "iant": 4899,
      "Ġeffort": 4900,
      "ĠMathemat": 4901,
      "umin": 4902,
      "ament": 4903,
      "Ġunknown": 4904,
      "Ġmultiplication": 4905,
      "Ġorganic": 4906,
      "Ġsentences": 4907,
      "Ġseven": 4908,
      "They": 4909,
      "ĠConstitution": 4910,
      "Ġtissue": 4911,
      "ĠSeptember": 4912,
      "ĠJuly": 4913,
      "Ġcarried": 4914,
      "Ġpresented": 4915,
      "care": 4916,
      "cious": 4917,
      "Ġnews": 4918,
      "Ġhypothesis": 4919,
      "Ad": 4920,
      "times": 4921,
      "Ġsand": 4922,
      "ĠCre": 4923,
      "ĠEgypt": 4924,
      "Ġshared": 4925,
      "Ġpercentage": 4926,
      "ĠAng": 4927,
      "ĠQuestion": 4928,
      "Ġoption": 4929,
      "Ġtown": 4930,
      "ancing": 4931,
      "ĠAN": 4932,
      "Ġcolors": 4933,
      "AP": 4934,
      "ĠSw": 4935,
      "cipl": 4936,
      "Ġestimate": 4937,
      "opes": 4938,
      "och": 4939,
      "rors": 4940,
      "ĠĠĠĠĠ": 4941,
      "Ġ2011": 4942,
      "Ġpairs": 4943,
      "Ġschol": 4944,
      "Ġshall": 4945,
      "ĠInstitute": 4946,
      "Type": 4947,
      "Ġchapter": 4948,
      "ĠHome": 4949,
      "Ġcorrel": 4950,
      "ĠFurther": 4951,
      "Ġlens": 4952,
      "ĠAI": 4953,
      "Ġfrequently": 4954,
      "ĠPlan": 4955,
      "åį": 4956,
      "Ġcognitive": 4957,
      "Ġstorage": 4958,
      "Ġmo": 4959,
      "Ġstarts": 4960,
      "Ġappe": 4961,
      "sec": 4962,
      "Ġstudying": 4963,
      "################": 4964,
      "Ġregarding": 4965,
      "Ph": 4966,
      "Ġcompound": 4967,
      "Ġplanning": 4968,
      "Ġestimated": 4969,
      "eper": 4970,
      "hold": 4971,
      "Ġadjust": 4972,
      "pha": 4973,
      "arian": 4974,
      "Ġexpressed": 4975,
      "ĠPresident": 4976,
      "Ġsin": 4977,
      "Ġisol": 4978,
      "Ġmag": 4979,
      "plug": 4980,
      "opl": 4981,
      "Ġsecurity": 4982,
      "Ġign": 4983,
      "racy": 4984,
      "ĠBritain": 4985,
      "while": 4986,
      "pol": 4987,
      "Ġacademic": 4988,
      "Ġhorizontal": 4989,
      "Ġcyl": 4990,
      "ĠWilliam": 4991,
      "Ġslight": 4992,
      "Ġplays": 4993,
      "Ġattrib": 4994,
      "Ġelectro": 4995,
      "Ġsouthern": 4996,
      "abetes": 4997,
      "Ġolder": 4998,
      "utive": 4999,
      "Ġvital": 5000,
      "clusive": 5001,
      "anguage": 5002,
      "Ġsuggests": 5003,
      "Ġassessment": 5004,
      "xiety": 5005,
      "mary": 5006,
      "cember": 5007,
      "oses": 5008,
      "Ġabsolute": 5009,
      "First": 5010,
      "ĠSet": 5011,
      "Ġimpacts": 5012,
      "iling": 5013,
      "Ġchrom": 5014,
      "Cont": 5015,
      "Ġgir": 5016,
      "Ġrunning": 5017,
      "Ġparty": 5018,
      "Ċĉĉĉ": 5019,
      "placement": 5020,
      "ĠData": 5021,
      "Ġequipment": 5022,
      "alysis": 5023,
      "Ġnodes": 5024,
      "ĠTime": 5025,
      "ario": 5026,
      "Ġhabitat": 5027,
      "Ġwire": 5028,
      "Ġappreci": 5029,
      ")^": 5030,
      "rd": 5031,
      "Ġencourage": 5032,
      "Ġgalax": 5033,
      "norm": 5034,
      "ĊĠĠĠĠĊĠĠĠ": 5035,
      "Ġflat": 5036,
      "ĠWestern": 5037,
      "BC": 5038,
      "urally": 5039,
      "Ġfacts": 5040,
      "mod": 5041,
      "Ġintellig": 5042,
      "Ġvocabulary": 5043,
      "poses": 5044,
      "da": 5045,
      "rum": 5046,
      "Ġtechnologies": 5047,
      "Ġglass": 5048,
      "55": 5049,
      "76": 5050,
      "Ġinteract": 5051,
      "Ġhelpful": 5052,
      "Ġdanger": 5053,
      "icks": 5054,
      "Ġatoms": 5055,
      "Ġadminist": 5056,
      "Ġgene": 5057,
      "ĠBo": 5058,
      "Ġrepresentation": 5059,
      "Ġremaining": 5060,
      "Can": 5061,
      "ructions": 5062,
      "Be": 5063,
      "Ġhyper": 5064,
      "map": 5065,
      "Ġassume": 5066,
      "std": 5067,
      "Ġstatic": 5068,
      "Ġconservation": 5069,
      "Another": 5070,
      "Ġjourney": 5071,
      "ĠSocial": 5072,
      "Ġsuppl": 5073,
      "ynomial": 5074,
      "Ġconnection": 5075,
      "ĠGet": 5076,
      "Ġuniverse": 5077,
      "Ġintegers": 5078,
      "rition": 5079,
      "Element": 5080,
      "what": 5081,
      "Ġadvantage": 5082,
      "Ġnorthern": 5083,
      "Ġtheorem": 5084,
      "ĠCalifornia": 5085,
      "Ġexposure": 5086,
      "Ġmostly": 5087,
      "ãĢĤ": 5088,
      "enty": 5089,
      "Ġsustainable": 5090,
      "men": 5091,
      "Ġotherwise": 5092,
      "Ġsugar": 5093,
      "ĠWater": 5094,
      "ĠInternational": 5095,
      "No": 5096,
      "ĠOut": 5097,
      "CO": 5098,
      "section": 5099,
      "Ġexpans": 5100,
      "Ġfriend": 5101,
      "Ġfert": 5102,
      "Ġminor": 5103,
      "igenous": 5104,
      "Ġdie": 5105,
      "ĠHigh": 5106,
      "ovember": 5107,
      "ĠProf": 5108,
      "Ġadvance": 5109,
      "ĠReturns": 5110,
      "Ġprecise": 5111,
      "Ġrocks": 5112,
      "ĠBi": 5113,
      "88": 5114,
      "Ġpush": 5115,
      "rates": 5116,
      "Ġagg": 5117,
      "Ġrein": 5118,
      "Ġplus": 5119,
      "Ġpreviously": 5120,
      "ĠFact": 5121,
      "De": 5122,
      "Ġfear": 5123,
      "pes": 5124,
      "Ġmeasuring": 5125,
      "Ġengineering": 5126,
      "Ġpolicies": 5127,
      "anc": 5128,
      "Ġprefer": 5129,
      "ĠGeneral": 5130,
      "oding": 5131,
      "ĠBoth": 5132,
      "Ġlogic": 5133,
      "Ġpen": 5134,
      "ructure": 5135,
      "Ġgeneration": 5136,
      "ographic": 5137,
      "Ġclearly": 5138,
      "ĠAustralia": 5139,
      "=\"": 5140,
      "urg": 5141,
      "Ġhous": 5142,
      "rab": 5143,
      "za": 5144,
      "aste": 5145,
      "Ġprinciple": 5146,
      "Ġmer": 5147,
      "ager": 5148,
      "Ġbank": 5149,
      "Ġwatch": 5150,
      "Ġ${": 5151,
      "Ġdiscrim": 5152,
      "Ġmoon": 5153,
      "Ġpromote": 5154,
      "encing": 5155,
      "icular": 5156,
      "Ġattract": 5157,
      "Ġfamous": 5158,
      "Ġplayed": 5159,
      "49": 5160,
      "inations": 5161,
      "static": 5162,
      "Ġbright": 5163,
      "Ġsatisf": 5164,
      "Ġcorresponding": 5165,
      "ĠDi": 5166,
      "Index": 5167,
      "rol": 5168,
      "eterm": 5169,
      "Ġmob": 5170,
      "Ġonto": 5171,
      "ĠExp": 5172,
      "Ġreleased": 5173,
      "htt": 5174,
      "Ġexcess": 5175,
      "Ġjournal": 5176,
      "Ġfigures": 5177,
      "then": 5178,
      "ĠConf": 5179,
      "Ġswitch": 5180,
      "ulf": 5181,
      "ithms": 5182,
      "Ġgeometry": 5183,
      "Ġmentioned": 5184,
      "war": 5185,
      "ashington": 5186,
      "Ġmale": 5187,
      "ĠFl": 5188,
      "Ð²": 5189,
      "Ġresid": 5190,
      "Ġpowers": 5191,
      "RO": 5192,
      "df": 5193,
      "Ġshowed": 5194,
      "Ġorganization": 5195,
      "ĠGovern": 5196,
      "Question": 5197,
      "Ġdigits": 5198,
      "ĠRepublic": 5199,
      "ĠWork": 5200,
      "ĠAut": 5201,
      "ams": 5202,
      "plugins": 5203,
      "ivation": 5204,
      "Ġperp": 5205,
      "Ġ1000": 5206,
      "erved": 5207,
      "Ġprocessing": 5208,
      "âĤ": 5209,
      "âĢĿ,": 5210,
      "ĠPress": 5211,
      "Ġclosed": 5212,
      "bed": 5213,
      "lang": 5214,
      "ially": 5215,
      "æĺ¯": 5216,
      "ruary": 5217,
      "Ġgrid": 5218,
      "ĠAD": 5219,
      "oper": 5220,
      "Ġworksheet": 5221,
      "path": 5222,
      "inf": 5223,
      "Ġlegis": 5224,
      "Ġvolcan": 5225,
      "LE": 5226,
      "Ġmeasurements": 5227,
      "ena": 5228,
      "Ġobservations": 5229,
      "Ġplat": 5230,
      "hetic": 5231,
      "Ġyellow": 5232,
      "Ġlearners": 5233,
      "Ġobtained": 5234,
      "isc": 5235,
      "Ġsufficient": 5236,
      "ĠBas": 5237,
      "Ġindicate": 5238,
      "Ġtens": 5239,
      "Ġheavy": 5240,
      "Ġprove": 5241,
      "Ġenvironments": 5242,
      "ronic": 5243,
      "47": 5244,
      "Ġtrial": 5245,
      "Ġhelping": 5246,
      "vironment": 5247,
      "Ñĥ": 5248,
      "Ġ36": 5249,
      "Ġcommand": 5250,
      "ĠSecond": 5251,
      "Ġlabel": 5252,
      "Ġawareness": 5253,
      "Ġdenomin": 5254,
      "asion": 5255,
      "Ġmoved": 5256,
      "ĠWorkshe": 5257,
      "Ġpuzz": 5258,
      "Ġdro": 5259,
      "uting": 5260,
      "gon": 5261,
      "Ġdial": 5262,
      "Ġlandsc": 5263,
      "Ġassist": 5264,
      "ĠChristian": 5265,
      "Ġcoming": 5266,
      "Ġfresh": 5267,
      "Ġinfected": 5268,
      "å¤": 5269,
      "Ġprimarily": 5270,
      "Ġintegral": 5271,
      "SA": 5272,
      "Ġconsumption": 5273,
      "ibrary": 5274,
      "Ð¼": 5275,
      "bols": 5276,
      "čĊĉ": 5277,
      "formation": 5278,
      "Ġpurposes": 5279,
      "æĸ": 5280,
      "Ġquar": 5281,
      "ĠNum": 5282,
      "Ġdiversity": 5283,
      "Ġinfections": 5284,
      "Ġorganizations": 5285,
      "Ġopin": 5286,
      "================": 5287,
      "</": 5288,
      "Ġmit": 5289,
      "Ġemotions": 5290,
      "Ġnutrients": 5291,
      "Ġmeant": 5292,
      "Ġplaying": 5293,
      "dent": 5294,
      "Ġves": 5295,
      "oolean": 5296,
      "requ": 5297,
      "ĠST": 5298,
      "Ġtrain": 5299,
      "ĠDem": 5300,
      "Ġsheet": 5301,
      "Ġfamiliar": 5302,
      "Ġmuscle": 5303,
      "Ġgenes": 5304,
      "Sc": 5305,
      "ogen": 5306,
      "().": 5307,
      "More": 5308,
      "Ġmainly": 5309,
      "Since": 5310,
      "Ġchain": 5311,
      "bf": 5312,
      "Ġvs": 5313,
      "ĠPhysics": 5314,
      "organ": 5315,
      "no": 5316,
      "urt": 5317,
      "ĠAdditionally": 5318,
      "code": 5319,
      "Ġhit": 5320,
      "ĠStage": 5321,
      "Ġannual": 5322,
      "isation": 5323,
      "nds": 5324,
      "ĠCommon": 5325,
      "Ġbegins": 5326,
      "Ġideal": 5327,
      "Ġfeedback": 5328,
      "Ġpet": 5329,
      "Ġ2009": 5330,
      "ĠLess": 5331,
      "ressive": 5332,
      "Ġcoin": 5333,
      "';": 5334,
      "otype": 5335,
      "Ġremoved": 5336,
      "apping": 5337,
      "ida": 5338,
      "ĠSu": 5339,
      "Ġanti": 5340,
      "åĩ": 5341,
      "Ġconsequences": 5342,
      "ĠStand": 5343,
      "Ġexpon": 5344,
      "ossible": 5345,
      "Step": 5346,
      "roc": 5347,
      "Ġfost": 5348,
      "Ġmist": 5349,
      "Ġson": 5350,
      "ener": 5351,
      "Ġstation": 5352,
      "emy": 5353,
      "eties": 5354,
      "That": 5355,
      "Ġdating": 5356,
      "Ġyield": 5357,
      "elt": 5358,
      "agraph": 5359,
      "Ġsymmet": 5360,
      "Ġvertex": 5361,
      "sl": 5362,
      "Ġuns": 5363,
      "Â·": 5364,
      "ara": 5365,
      "Ġlived": 5366,
      "Ġmanage": 5367,
      "Ġproteins": 5368,
      "42": 5369,
      "Ġdecades": 5370,
      "Ġnavig": 5371,
      "Ġbuy": 5372,
      "ĠSimilar": 5373,
      "down": 5374,
      "Ġtaught": 5375,
      "Ġinvent": 5376,
      "Ġsed": 5377,
      "item": 5378,
      "state": 5379,
      "Ġstored": 5380,
      "efined": 5381,
      "Ġrecycl": 5382,
      "Ġcompanies": 5383,
      "mp": 5384,
      "Ġneuro": 5385,
      "Ġsquares": 5386,
      "Ġwest": 5387,
      "ĠPract": 5388,
      "ĠQuestions": 5389,
      "Ġpractical": 5390,
      "Ġcloser": 5391,
      "ĠJapan": 5392,
      "Ġplans": 5393,
      "ĠStat": 5394,
      "gi": 5395,
      "Ġrecently": 5396,
      "Ġimmediately": 5397,
      "Ġfib": 5398,
      "ĠHer": 5399,
      "=\\": 5400,
      "Ġcook": 5401,
      "Ġdecrease": 5402,
      "road": 5403,
      "Ġdrawn": 5404,
      "Ġgenerated": 5405,
      "Ġslaves": 5406,
      "Ġgreatest": 5407,
      "Ġrelation": 5408,
      "Ġchoices": 5409,
      "mark": 5410,
      "ptions": 5411,
      "pack": 5412,
      "ĠNote": 5413,
      "Ġpret": 5414,
      "Ġmembr": 5415,
      "Ġsatell": 5416,
      "']": 5417,
      "rew": 5418,
      "Ġspot": 5419,
      "ĠOctober": 5420,
      "orge": 5421,
      ")$": 5422,
      "roke": 5423,
      "Ġmission": 5424,
      "Ġcelebr": 5425,
      "Ġskill": 5426,
      "gl": 5427,
      "acing": 5428,
      "Ġdisorders": 5429,
      "Ġpresident": 5430,
      "lamm": 5431,
      "flow": 5432,
      "Ġcrops": 5433,
      "ching": 5434,
      "Ġchosen": 5435,
      "ĠWashington": 5436,
      "Ġbecoming": 5437,
      "flo": 5438,
      "dimensional": 5439,
      "pop": 5440,
      "Ġexchange": 5441,
      "Ġperhaps": 5442,
      "Ġlayers": 5443,
      "Post": 5444,
      "Ġpul": 5445,
      "Ġlun": 5446,
      "ĠBar": 5447,
      "Ġinsert": 5448,
      "Ġcommercial": 5449,
      "67": 5450,
      "Ġiniti": 5451,
      "Ġtreated": 5452,
      "semb": 5453,
      "Ġstages": 5454,
      "Ġnotice": 5455,
      "axis": 5456,
      "Ġhundred": 5457,
      "Ġapart": 5458,
      "Ġpun": 5459,
      "ĠNovember": 5460,
      "ĠAsia": 5461,
      "ĠWhich": 5462,
      "Ġdiscovery": 5463,
      "Ġoccurred": 5464,
      "tra": 5465,
      "imize": 5466,
      "ĠSy": 5467,
      "Col": 5468,
      "lib": 5469,
      "anged": 5470,
      "ĠDecember": 5471,
      "rich": 5472,
      "Ġcombined": 5473,
      "ĠEvery": 5474,
      "Ġplate": 5475,
      "Ġconcentration": 5476,
      "/*": 5477,
      "ĠWrite": 5478,
      "stream": 5479,
      "gn": 5480,
      "vector": 5481,
      "Ġtemp": 5482,
      "orph": 5483,
      "Ġmal": 5484,
      "Ġ32": 5485,
      "Ġengage": 5486,
      "Ġinfinite": 5487,
      "Ġgall": 5488,
      "Ġready": 5489,
      "Ġparticle": 5490,
      "Ġ31": 5491,
      "Ġshowing": 5492,
      "ctic": 5493,
      "Ġplanets": 5494,
      "Ġblocks": 5495,
      "fall": 5496,
      "ĠSl": 5497,
      "Ġ2008": 5498,
      "Ġspaces": 5499,
      "Ġanxiety": 5500,
      "Ġconflict": 5501,
      "ĠBra": 5502,
      "ĠVol": 5503,
      "eric": 5504,
      "aling": 5505,
      "Or": 5506,
      "pace": 5507,
      "Ġast": 5508,
      "asure": 5509,
      "Ġ500": 5510,
      "Ġrelease": 5511,
      "going": 5512,
      "Ġcultures": 5513,
      "Ġsubtract": 5514,
      "According": 5515,
      "ned": 5516,
      "Ġfill": 5517,
      "result": 5518,
      "Ġforests": 5519,
      "otic": 5520,
      "Ġsave": 5521,
      "ĠFunction": 5522,
      "Ġnuclear": 5523,
      ".__": 5524,
      "Ðº": 5525,
      "Ġtold": 5526,
      "Ġing": 5527,
      "forms": 5528,
      "Ġmedium": 5529,
      "ĠValue": 5530,
      "ĠCenter": 5531,
      "68": 5532,
      "ira": 5533,
      "iful": 5534,
      "Ġrough": 5535,
      "(-": 5536,
      "itative": 5537,
      "Ġunivers": 5538,
      "Ġcandid": 5539,
      "Ġswe": 5540,
      "Ġbone": 5541,
      "Ġdram": 5542,
      "plate": 5543,
      "Ġship": 5544,
      "Ġdestroy": 5545,
      "Ġsettle": 5546,
      "Ġstatistics": 5547,
      "ria": 5548,
      "Ġexposed": 5549,
      "Ġexperienced": 5550,
      "Ġprompt": 5551,
      "Ġwoman": 5552,
      "Ġenhance": 5553,
      "02": 5554,
      "Ġwet": 5555,
      "ĠStep": 5556,
      "Ġperformed": 5557,
      "Ġgram": 5558,
      "ĠJames": 5559,
      "ĠSk": 5560,
      "ĠSur": 5561,
      "Ġequals": 5562,
      "ocation": 5563,
      "ĠSpace": 5564,
      "Sub": 5565,
      "ĠĠĠĠĠĠ": 5566,
      "Ġsong": 5567,
      "Ġhear": 5568,
      "Ġcreates": 5569,
      "ĠHelp": 5570,
      "77": 5571,
      "Ġinner": 5572,
      "eli": 5573,
      "Ġpeace": 5574,
      "Ġdied": 5575,
      "Ġframe": 5576,
      "Ġtwice": 5577,
      "500": 5578,
      "Ġbehaviors": 5579,
      "AA": 5580,
      "Ġinterested": 5581,
      "Ġtru": 5582,
      "Ġsplit": 5583,
      "Ġdeeper": 5584,
      "Ġimplic": 5585,
      "Ġdivis": 5586,
      "itual": 5587,
      "Ġcolour": 5588,
      "Ġtried": 5589,
      "Ġperspective": 5590,
      "Ġturns": 5591,
      "Ġdiscussed": 5592,
      "elesc": 5593,
      "ails": 5594,
      "Ġkid": 5595,
      "Ġpossess": 5596,
      "Math": 5597,
      "Ġspecifically": 5598,
      "Ġcontinues": 5599,
      "Ġconcerns": 5600,
      "ĠHol": 5601,
      "ologist": 5602,
      "Ġbattle": 5603,
      "Ġselected": 5604,
      "ris": 5605,
      "ules": 5606,
      "Ġfacilit": 5607,
      "Ġexplained": 5608,
      "ocal": 5609,
      "Ġlik": 5610,
      "ificial": 5611,
      "Ġexpansion": 5612,
      "ĠMake": 5613,
      "Ġflex": 5614,
      "Ġpref": 5615,
      "rant": 5616,
      "ĊĠĠĠĠĠĠĠĠĠ": 5617,
      "Ġmovements": 5618,
      "$\\": 5619,
      "Ġfriction": 5620,
      "Ġeating": 5621,
      "first": 5622,
      "Ġdoll": 5623,
      "ĠEmpire": 5624,
      "Ġwealth": 5625,
      "Ġinteractions": 5626,
      "Ġprogramming": 5627,
      "<<": 5628,
      "ham": 5629,
      "Ġreactions": 5630,
      "ĠFigure": 5631,
      "Ġcomplexity": 5632,
      "hors": 5633,
      "Ġwhereas": 5634,
      "Ġkinds": 5635,
      "Do": 5636,
      "Ġcenturies": 5637,
      "41": 5638,
      "liam": 5639,
      "Ġtang": 5640,
      "Ġconversion": 5641,
      "Ġbuildings": 5642,
      "Ġphotos": 5643,
      "Ġsignals": 5644,
      "Ġinsights": 5645,
      "Ġsurvive": 5646,
      "ev": 5647,
      "Ġwarming": 5648,
      "Ġconnections": 5649,
      "Ġcommunicate": 5650,
      "Ġorbit": 5651,
      "Ġrational": 5652,
      "Ġformer": 5653,
      "Ġarmy": 5654,
      "Figure": 5655,
      "Ġtrou": 5656,
      "Ġhon": 5657,
      "ĠComput": 5658,
      "itudes": 5659,
      "ford": 5660,
      "Ġstorm": 5661,
      "iveness": 5662,
      "pat": 5663,
      "Ġsurpr": 5664,
      "Ġexpressions": 5665,
      "level": 5666,
      "ocol": 5667,
      "Ġsyn": 5668,
      "Ġdefic": 5669,
      "Ġexperiments": 5670,
      "Ġrespectively": 5671,
      "uracy": 5672,
      "Ġdimensions": 5673,
      "elines": 5674,
      "ĠMiss": 5675,
      "main": 5676,
      "Ġsubsequ": 5677,
      "Ġagricultural": 5678,
      "Ġarm": 5679,
      "Ġastronom": 5680,
      "ĠExamples": 5681,
      "atically": 5682,
      "ĠPat": 5683,
      "zy": 5684,
      "Ġdescribes": 5685,
      "istical": 5686,
      "ĠMark": 5687,
      "Expl": 5688,
      "Ġexplanation": 5689,
      "break": 5690,
      "ĠMexico": 5691,
      "98": 5692,
      "Ġclin": 5693,
      "VID": 5694,
      "Ġtox": 5695,
      "ĠArch": 5696,
      "Ġvessel": 5697,
      "asp": 5698,
      "else": 5699,
      "ĠPower": 5700,
      "ints": 5701,
      "Ġobvious": 5702,
      "ĠAnother": 5703,
      "Ġdiameter": 5704,
      "ĠAlgebra": 5705,
      "struct": 5706,
      "ciences": 5707,
      "ĠFebruary": 5708,
      "Num": 5709,
      "Ġusers": 5710,
      "ĠDav": 5711,
      "being": 5712,
      "Ġrecognize": 5713,
      "ĠHouse": 5714,
      "Ġproportion": 5715,
      "ulating": 5716,
      "ca": 5717,
      "Ġbiological": 5718,
      "Ġanalyze": 5719,
      "ĠAny": 5720,
      "Solution": 5721,
      "Ġdistingu": 5722,
      "hyd": 5723,
      "ĠRevolution": 5724,
      "PS": 5725,
      "å°": 5726,
      "lick": 5727,
      "Ġconfirm": 5728,
      "ĠShow": 5729,
      "ĠInf": 5730,
      "Ġoutcome": 5731,
      "cientists": 5732,
      "Ġ2007": 5733,
      "ille": 5734,
      "Ñĭ": 5735,
      "Ġproduces": 5736,
      "ĠInstead": 5737,
      "Ġelimin": 5738,
      "Ġera": 5739,
      "liament": 5740,
      "Ġcout": 5741,
      "Ġnerv": 5742,
      "ĠNAS": 5743,
      "aign": 5744,
      "ĠTop": 5745,
      "Ġreaders": 5746,
      "Ġgases": 5747,
      "that": 5748,
      "Ġformal": 5749,
      "Ġexamine": 5750,
      "chers": 5751,
      "Ġhair": 5752,
      "Ġdiabetes": 5753,
      "ĠSee": 5754,
      "Ġinvolving": 5755,
      "Ġcourt": 5756,
      "reds": 5757,
      "çĶ¨": 5758,
      "Ġvast": 5759,
      "Ġimproved": 5760,
      "ĠJapanese": 5761,
      "Ġthin": 5762,
      "Ġcontract": 5763,
      "Ġsaying": 5764,
      "Ġreality": 5765,
      "ĠSoci": 5766,
      "Ġfocused": 5767,
      "Ġcreative": 5768,
      "ING": 5769,
      "vis": 5770,
      "ndrome": 5771,
      "Ġdrive": 5772,
      "Ġconstitution": 5773,
      "tion": 5774,
      "Ġnums": 5775,
      "Ġcapable": 5776,
      "Ġfif": 5777,
      "Ġnarr": 5778,
      "Ġsubjects": 5779,
      "Ġrig": 5780,
      "Ġgreenhouse": 5781,
      "Ġ2021": 5782,
      "////": 5783,
      "Ġanyone": 5784,
      "Ġfeelings": 5785,
      "Ġindicates": 5786,
      "Ġrepeated": 5787,
      "è¡Į": 5788,
      "ĠSuch": 5789,
      "Ġrequirements": 5790,
      "Ġmarine": 5791,
      "Ġpron": 5792,
      "Ġcalculator": 5793,
      "Ġwonder": 5794,
      "ãĥ": 5795,
      "Ġshar": 5796,
      "ribe": 5797,
      "ees": 5798,
      "rence": 5799,
      "ĠLatin": 5800,
      "Ġdefault": 5801,
      "Ġfather": 5802,
      "UT": 5803,
      "li": 5804,
      "ĠRed": 5805,
      "Ġshift": 5806,
      "Ġtele": 5807,
      "Ġsupported": 5808,
      "Ġsess": 5809,
      "Ġtiny": 5810,
      "Ġclick": 5811,
      "Ġcompleted": 5812,
      "Ġproperly": 5813,
      "Ġoral": 5814,
      "Ġbehaviour": 5815,
      "gra": 5816,
      "het": 5817,
      "atural": 5818,
      "Ġpup": 5819,
      "Ġunf": 5820,
      "Ġoperator": 5821,
      "Ġsnow": 5822,
      "ĠMoon": 5823,
      "Ġinh": 5824,
      "Ġtypical": 5825,
      "ether": 5826,
      "Ġcollected": 5827,
      "long": 5828,
      "ifies": 5829,
      "Ġstudied": 5830,
      "ux": 5831,
      "Ġconfidence": 5832,
      "acent": 5833,
      "Ġcalculation": 5834,
      "mic": 5835,
      "Ġfro": 5836,
      "Ġcreation": 5837,
      "Ġâī": 5838,
      "ĠNASA": 5839,
      "orest": 5840,
      "Ġpolynomial": 5841,
      "ĠArray": 5842,
      "Ġcomputers": 5843,
      "Pr": 5844,
      "Ġeast": 5845,
      "Ġorb": 5846,
      "rier": 5847,
      "Ġexistence": 5848,
      "vin": 5849,
      "Ġbattery": 5850,
      "inent": 5851,
      "Ġsuitable": 5852,
      "Ġreligion": 5853,
      "Ġ2005": 5854,
      "57": 5855,
      "Ġthoughts": 5856,
      "Ġrecorded": 5857,
      "Ġvaccine": 5858,
      "Ġisland": 5859,
      "ĠLike": 5860,
      "Ġpositions": 5861,
      "Ġrecommend": 5862,
      "Ġhole": 5863,
      "Ġreb": 5864,
      "Although": 5865,
      "aper": 5866,
      "bability": 5867,
      "ped": 5868,
      "Ġvote": 5869,
      "ander": 5870,
      "airs": 5871,
      "omas": 5872,
      "Ġedges": 5873,
      "rating": 5874,
      "sort": 5875,
      "Ġstatements": 5876,
      "Ġcalculations": 5877,
      "Ġfinally": 5878,
      "Ġdoub": 5879,
      "rat": 5880,
      "Ġrhy": 5881,
      "ups": 5882,
      "aved": 5883,
      "Ġroad": 5884,
      "Ġtells": 5885,
      "Read": 5886,
      "Ġreached": 5887,
      "ĠHave": 5888,
      "Ġfruit": 5889,
      "Each": 5890,
      "bor": 5891,
      "ithmetic": 5892,
      "Ġmanip": 5893,
      "Ġprepar": 5894,
      "Ġincreasingly": 5895,
      "Ġagriculture": 5896,
      "Our": 5897,
      "Ġstone": 5898,
      "Ġclim": 5899,
      "Ġuniform": 5900,
      "Ġrapidly": 5901,
      "useum": 5902,
      "ondon": 5903,
      "'''": 5904,
      "astern": 5905,
      "ressed": 5906,
      "Ġdependent": 5907,
      "Ġpump": 5908,
      "Ġexpert": 5909,
      "Ġvisible": 5910,
      "tml": 5911,
      "oma": 5912,
      "ĠObject": 5913,
      "Ġ300": 5914,
      "Ġclosely": 5915,
      "Ġsymbols": 5916,
      "cons": 5917,
      "ĠJour": 5918,
      "Ġfoundation": 5919,
      "Ġderived": 5920,
      "Ġprev": 5921,
      "ictionary": 5922,
      "Ġstack": 5923,
      "ĠGreen": 5924,
      "ears": 5925,
      "Ġcoordinates": 5926,
      "uous": 5927,
      "rays": 5928,
      "Ġsurfaces": 5929,
      "ĠDepartment": 5930,
      "iance": 5931,
      "Ġexhib": 5932,
      "Ġdy": 5933,
      "ĠMiddle": 5934,
      "ĠCheck": 5935,
      "Ġdrugs": 5936,
      "Ġfailure": 5937,
      "Ġturb": 5938,
      "Ġunderlying": 5939,
      "Ġindependence": 5940,
      "='": 5941,
      "Not": 5942,
      "ĠPoint": 5943,
      "rations": 5944,
      "stract": 5945,
      "nic": 5946,
      "Ġdu": 5947,
      "Ġforced": 5948,
      "Ġmanner": 5949,
      "ĠMc": 5950,
      "ĠAdd": 5951,
      "Ġarguments": 5952,
      "Ġslightly": 5953,
      "ĠServ": 5954,
      "Ġallerg": 5955,
      "Ġpolar": 5956,
      "Ġdepression": 5957,
      "['": 5958,
      "Ġsubstance": 5959,
      "Ġinsects": 5960,
      "imals": 5961,
      "ĠUp": 5962,
      "Ġtransition": 5963,
      "ĠMethod": 5964,
      "bi": 5965,
      "Ġbrief": 5966,
      "ama": 5967,
      "ĠJewish": 5968,
      "imeter": 5969,
      "Ġfever": 5970,
      "Ġoverl": 5971,
      "Ġbaby": 5972,
      "Ġsac": 5973,
      "Ġcomment": 5974,
      "62": 5975,
      "Ġturned": 5976,
      "Ġnotation": 5977,
      "Ġhighlight": 5978,
      "ĠProblem": 5979,
      "Ġ##": 5980,
      "Ġ2000": 5981,
      "alt": 5982,
      "Ġbird": 5983,
      "Ġinverse": 5984,
      "yles": 5985,
      "ĠPark": 5986,
      "othing": 5987,
      ")]": 5988,
      "72": 5989,
      "New": 5990,
      "tering": 5991,
      "Ġseeds": 5992,
      "03": 5993,
      "Ġlies": 5994,
      "ĠIS": 5995,
      "Ġinvestment": 5996,
      "Ġtheories": 5997,
      "ĠRs": 5998,
      "Ġsignificance": 5999,
      "Ġscreen": 6000,
      "åº": 6001,
      "Ġquantum": 6002,
      "Ġodd": 6003,
      "iced": 6004,
      "Ġframew": 6005,
      "09": 6006,
      "43": 6007,
      "case": 6008,
      "ĠAge": 6009,
      "Ġrotation": 6010,
      "Many": 6011,
      "orter": 6012,
      "ague": 6013,
      "aser": 6014,
      "ĠOrgan": 6015,
      "58": 6016,
      "ture": 6017,
      "ĠDel": 6018,
      "angular": 6019,
      "world": 6020,
      "file": 6021,
      "Ġacts": 6022,
      "Ġhimself": 6023,
      "Ġalgorithms": 6024,
      "Ġthrow": 6025,
      "ĠMa": 6026,
      "Ġdecided": 6027,
      "Ġparagraph": 6028,
      "Ġcube": 6029,
      "Ġeggs": 6030,
      "Ġliber": 6031,
      "ampl": 6032,
      "Ġ()": 6033,
      "ortunately": 6034,
      "python": 6035,
      "Ġnetworks": 6036,
      "Ġnations": 6037,
      "teries": 6038,
      "Ġmillions": 6039,
      "Ġgrass": 6040,
      "related": 6041,
      "åĽ": 6042,
      "ĠTree": 6043,
      "Ġexperts": 6044,
      "acific": 6045,
      "itors": 6046,
      "idden": 6047,
      "Te": 6048,
      "ĠRights": 6049,
      "Ġcontem": 6050,
      "Ġrectangle": 6051,
      "Ġiter": 6052,
      "Ġpictures": 6053,
      "but": 6054,
      "Ġconvent": 6055,
      "Ġtruth": 6056,
      "Ġimmig": 6057,
      "nes": 6058,
      "Ġfine": 6059,
      "stood": 6060,
      "Ġinteraction": 6061,
      "Ġsubs": 6062,
      "coh": 6063,
      "Ġdifficulty": 6064,
      "Ġpal": 6065,
      "ago": 6066,
      "Ġchann": 6067,
      "Ġextract": 6068,
      "Ġì": 6069,
      "ĠSov": 6070,
      "cest": 6071,
      "Ġsecondary": 6072,
      "Ġmarked": 6073,
      "Ġcolonies": 6074,
      "Ġwaters": 6075,
      "Ġvariation": 6076,
      "Ġfeeling": 6077,
      "Most": 6078,
      "Ġtooth": 6079,
      "osion": 6080,
      "lete": 6081,
      "Ġstated": 6082,
      "Ġsurvey": 6083,
      "erals": 6084,
      "Ġpaid": 6085,
      "Ġ\\\\": 6086,
      "Ġmassive": 6087,
      "Ġquantities": 6088,
      "Ġearthqu": 6089,
      "Ġproposed": 6090,
      "ĠProgram": 6091,
      "Ġshell": 6092,
      "Ġintroduction": 6093,
      "Sim": 6094,
      "ropical": 6095,
      "??": 6096,
      "cil": 6097,
      "Ġwestern": 6098,
      "ĠTreat": 6099,
      "Ġages": 6100,
      "issance": 6101,
      "cipal": 6102,
      "inition": 6103,
      "Ġends": 6104,
      "Find": 6105,
      "Ġstick": 6106,
      "rical": 6107,
      "arg": 6108,
      "Ġseed": 6109,
      "rium": 6110,
      "Ġequality": 6111,
      "(),": 6112,
      "Ġdrop": 6113,
      "Ġprocedure": 6114,
      "olds": 6115,
      "random": 6116,
      "Ġcompounds": 6117,
      "Ġslave": 6118,
      "ĠAssoci": 6119,
      "Ġdemonstrate": 6120,
      "Ã§": 6121,
      "Ġspeaking": 6122,
      "object": 6123,
      "pring": 6124,
      "Ġevaluate": 6125,
      "ested": 6126,
      "abol": 6127,
      "udd": 6128,
      "Ġflows": 6129,
      "08": 6130,
      "Ġhence": 6131,
      "My": 6132,
      "eries": 6133,
      "Ġbond": 6134,
      "Ġaccuracy": 6135,
      "Ġhappened": 6136,
      "vol": 6137,
      "Ġwel": 6138,
      "icip": 6139,
      "ĠIN": 6140,
      "Ġdefe": 6141,
      "Ġsmallest": 6142,
      "Ġtro": 6143,
      "Ġconducted": 6144,
      "79": 6145,
      "Ġhomes": 6146,
      "ellect": 6147,
      "Ġselection": 6148,
      "Ġcounting": 6149,
      "win": 6150,
      "Ġsections": 6151,
      "vec": 6152,
      "Ġtrust": 6153,
      "Ġcomposition": 6154,
      "View": 6155,
      "Ġvoice": 6156,
      "Ġcategories": 6157,
      "Ġbiod": 6158,
      "olf": 6159,
      "unk": 6160,
      "orrow": 6161,
      "Ġpi": 6162,
      "step": 6163,
      "quare": 6164,
      "Ġfloor": 6165,
      "Ġrespir": 6166,
      "Ġcorrectly": 6167,
      "Ġportion": 6168,
      "nam": 6169,
      "Ġparameters": 6170,
      "Ġcontrolled": 6171,
      "Ġholds": 6172,
      "SD": 6173,
      "Ġrows": 6174,
      "56": 6175,
      "inction": 6176,
      "top": 6177,
      "Ġfa": 6178,
      "Ġcorner": 6179,
      "Ġtexts": 6180,
      "Ġpull": 6181,
      "Ġhunt": 6182,
      "Ġsphere": 6183,
      "Ġcircular": 6184,
      "ĠUK": 6185,
      "Ġexplains": 6186,
      "Ġseek": 6187,
      "iate": 6188,
      "})": 6189,
      "Ġreturned": 6190,
      "hips": 6191,
      "Ġtables": 6192,
      "Ġrenew": 6193,
      "hematic": 6194,
      "ĠMathematics": 6195,
      "ĊĊĠĠĠĠĠĠĠĠĠĠĠ": 6196,
      "orous": 6197,
      "Ġbones": 6198,
      "54": 6199,
      "Ġcarefully": 6200,
      "ĠColle": 6201,
      "Ġmaintaining": 6202,
      "Point": 6203,
      "Ġrub": 6204,
      "Ġjustice": 6205,
      "Ġsexual": 6206,
      "Ġouter": 6207,
      "Ġdetailed": 6208,
      "ĠCourt": 6209,
      "MAT": 6210,
      "Ġprofession": 6211,
      "Ġchallenging": 6212,
      "Ġfarmers": 6213,
      "Ġdenominator": 6214,
      "ache": 6215,
      "CC": 6216,
      "Last": 6217,
      "Ġwalls": 6218,
      "split": 6219,
      "ĠTur": 6220,
      "Ġprices": 6221,
      "ĠCOVID": 6222,
      "dict": 6223,
      "ĠWell": 6224,
      "ping": 6225,
      "Ġband": 6226,
      "ishing": 6227,
      "Ġbeliefs": 6228,
      "ÃĹ": 6229,
      "inked": 6230,
      "Ġhundreds": 6231,
      "inating": 6232,
      "oids": 6233,
      "Ġvertices": 6234,
      "ML": 6235,
      "Ġaid": 6236,
      "Ġkilled": 6237,
      "Ġarticles": 6238,
      "Ġmarks": 6239,
      "ĠStudy": 6240,
      "Ġboundary": 6241,
      "Ġdrug": 6242,
      "Ġinstitutions": 6243,
      "ĠTeac": 6244,
      "Ġintelligence": 6245,
      "Ġauthors": 6246,
      "Ġexcell": 6247,
      "Ġleaving": 6248,
      "ĠGrade": 6249,
      "Ġderivative": 6250,
      "Ġequil": 6251,
      "Ġring": 6252,
      "rame": 6253,
      "ĠVari": 6254,
      "Ġtransmission": 6255,
      "04": 6256,
      "Ġreduction": 6257,
      "last": 6258,
      "rox": 6259,
      "ĠBet": 6260,
      "Ġcars": 6261,
      "Ġnormally": 6262,
      "ĠMoreover": 6263,
      "Ġfilled": 6264,
      "Ġvul": 6265,
      "dated": 6266,
      "Ġmixed": 6267,
      "Ġabilities": 6268,
      "ĠEngine": 6269,
      "Ġmissing": 6270,
      "AB": 6271,
      "lines": 6272,
      "âĢĻ.": 6273,
      "Ġpoet": 6274,
      "Ġdirections": 6275,
      "ÑĮ": 6276,
      "Ġextent": 6277,
      "ĠGeorge": 6278,
      "arant": 6279,
      "ĠOcean": 6280,
      "pers": 6281,
      "ias": 6282,
      "Ġ]": 6283,
      "edic": 6284,
      "ĠSch": 6285,
      "Students": 6286,
      "Ġconsistent": 6287,
      "ĠDevelopment": 6288,
      "DF": 6289,
      "Ġtut": 6290,
      "itational": 6291,
      "ĠDist": 6292,
      "Ġclock": 6293,
      "Ġpartners": 6294,
      "Ġdespite": 6295,
      "home": 6296,
      "parent": 6297,
      "Ġstem": 6298,
      "ĠNode": 6299,
      "Ġpeak": 6300,
      "cript": 6301,
      "width": 6302,
      "Ġcoal": 6303,
      "Ġtriangles": 6304,
      "Ġauthority": 6305,
      "Time": 6306,
      "attle": 6307,
      "ĠBay": 6308,
      "Ġdecide": 6309,
      "Ġkilogram": 6310,
      "Ġdesired": 6311,
      "Ġrisks": 6312,
      "Ġasking": 6313,
      "color": 6314,
      "Ġcast": 6315,
      "52": 6316,
      "public": 6317,
      "vision": 6318,
      "Ġtitle": 6319,
      "Ġaccum": 6320,
      "bar": 6321,
      "Ġlimits": 6322,
      "Ġfasc": 6323,
      "Ġshif": 6324,
      "ĠFurthermore": 6325,
      "rest": 6326,
      "Ġstaff": 6327,
      "ĠBel": 6328,
      "Ġð": 6329,
      "Ġtor": 6330,
      "ete": 6331,
      "rip": 6332,
      "ĠEnvironment": 6333,
      "Ġleaf": 6334,
      "Ġreasoning": 6335,
      "âĪĴ": 6336,
      "63": 6337,
      "Ġscal": 6338,
      "ĠProject": 6339,
      "theta": 6340,
      "Ġsend": 6341,
      "ĠCity": 6342,
      "Ġinstructions": 6343,
      "ÃŃ": 6344,
      "ĠAtt": 6345,
      "Ġproducing": 6346,
      "Ġcampaign": 6347,
      "Ġexploration": 6348,
      "Ġarrange": 6349,
      "Ġsegment": 6350,
      "Ġcomplicated": 6351,
      "Ġgod": 6352,
      "Ġpaint": 6353,
      "ĠĊ": 6354,
      "ĠLanguage": 6355,
      "Ġobserve": 6356,
      "Ġmuscles": 6357,
      "Ġnitrogen": 6358,
      "uits": 6359,
      "Ð´": 6360,
      "ĠSat": 6361,
      "Ġracial": 6362,
      "Ġdescription": 6363,
      "Ġscholars": 6364,
      "ĠHuman": 6365,
      "find": 6366,
      "Ñı": 6367,
      "Ġnan": 6368,
      "omy": 6369,
      "________________": 6370,
      "EL": 6371,
      "Ġbutter": 6372,
      "values": 6373,
      "Ġkilomet": 6374,
      "Ġpretty": 6375,
      "lig": 6376,
      "Ġkn": 6377,
      "Ġcomposed": 6378,
      "Ġemail": 6379,
      "\\\\": 6380,
      "Ġroles": 6381,
      "ENT": 6382,
      "Ġsky": 6383,
      "Ġbot": 6384,
      "Ġattached": 6385,
      "endicular": 6386,
      "Ġpotentially": 6387,
      "Ġelev": 6388,
      "ĠExper": 6389,
      "Ġfrag": 6390,
      "Ġtalking": 6391,
      "ĠMount": 6392,
      "Ġintended": 6393,
      "Ġcollege": 6394,
      "Ġviolence": 6395,
      "Ġwants": 6396,
      "ĠHy": 6397,
      "ĠNative": 6398,
      "ĠLondon": 6399,
      "Ġrail": 6400,
      "Ġmechanical": 6401,
      "Ġlooked": 6402,
      "Ġerrors": 6403,
      "Ġenable": 6404,
      "Ġlargely": 6405,
      "čĊčĊĠĠĠ": 6406,
      "Ġsusp": 6407,
      "Ġtu": 6408,
      "Ġhosp": 6409,
      "ĠType": 6410,
      "Ġimper": 6411,
      "range": 6412,
      "Id": 6413,
      "07": 6414,
      "Two": 6415,
      "ĠFound": 6416,
      "ĠPlease": 6417,
      "ultane": 6418,
      "Ġflight": 6419,
      "Ġdeviation": 6420,
      "ĠPacific": 6421,
      "Ġraised": 6422,
      "Ġcolumns": 6423,
      "Ġancest": 6424,
      "Ġendl": 6425,
      "Ġoperating": 6426,
      "Ġresponses": 6427,
      "west": 6428,
      "ipped": 6429,
      "Ġstruggle": 6430,
      "ĠJournal": 6431,
      "Lear": 6432,
      "Out": 6433,
      "Note": 6434,
      "59": 6435,
      "During": 6436,
      "Ġvill": 6437,
      "ĠLou": 6438,
      "Ġconstra": 6439,
      "eria": 6440,
      "Ġhealthcare": 6441,
      "mathbf": 6442,
      "sm": 6443,
      "ses": 6444,
      "ynt": 6445,
      "Ġfing": 6446,
      "Ġperman": 6447,
      "Ġoffice": 6448,
      "RI": 6449,
      "cor": 6450,
      "aped": 6451,
      "Ġpure": 6452,
      "ï¼ļ": 6453,
      "Ġreverse": 6454,
      "Ġprepared": 6455,
      "Ġecosystems": 6456,
      "Ġcup": 6457,
      "Ġstable": 6458,
      "ĠTheore": 6459,
      "oyal": 6460,
      "ä¸Ń": 6461,
      "ĠCentral": 6462,
      "Ġsuggested": 6463,
      "Ġrecords": 6464,
      "Americ": 6465,
      "Bl": 6466,
      "ĠMart": 6467,
      "Ġkeeping": 6468,
      "Ġwindow": 6469,
      "Ġinflamm": 6470,
      "ircraft": 6471,
      "Ġhomework": 6472,
      "Ġoptimal": 6473,
      "ĠReview": 6474,
      "Ġrepresenting": 6475,
      "ĠSouthern": 6476,
      "ĠAtl": 6477,
      "Ġcomprehensive": 6478,
      "Data": 6479,
      "how": 6480,
      "ĠMass": 6481,
      "otion": 6482,
      "ĠChurch": 6483,
      "Ġexploring": 6484,
      "ĠUnderstanding": 6485,
      "Ġultimately": 6486,
      "Ġdiscrimination": 6487,
      "lers": 6488,
      "Ġbed": 6489,
      "Ġsecret": 6490,
      "Ġglac": 6491,
      "Ġcategory": 6492,
      "vals": 6493,
      "Ġinterests": 6494,
      "Ġcharacterized": 6495,
      "urd": 6496,
      "Ġunlike": 6497,
      "Ġterritory": 6498,
      "Pre": 6499,
      "Ġimplementation": 6500,
      "ya": 6501,
      "Ġpil": 6502,
      "ĠDoes": 6503,
      "such": 6504,
      "Ġconj": 6505,
      "ĠPM": 6506,
      "ĠQue": 6507,
      "Ġinequality": 6508,
      "obal": 6509,
      "Ġkept": 6510,
      "ĠJul": 6511,
      "Ġcapture": 6512,
      "Ġchromos": 6513,
      "gans": 6514,
      "well": 6515,
      "Ġreplace": 6516,
      "Ġqual": 6517,
      "Ġviruses": 6518,
      "etal": 6519,
      "Ġcylinder": 6520,
      "\\$": 6521,
      "abits": 6522,
      "Ġsharing": 6523,
      "Ġimpossible": 6524,
      "Ġchildhood": 6525,
      "hemical": 6526,
      "Ġdiagnosis": 6527,
      "69": 6528,
      "Ġ;": 6529,
      "Ġviews": 6530,
      "Ġcredit": 6531,
      "lements": 6532,
      "Ġkin": 6533,
      "ded": 6534,
      "Ġspend": 6535,
      "Ġinfluenced": 6536,
      "Ġfly": 6537,
      "Ġworldwide": 6538,
      "Ġthousand": 6539,
      "cdot": 6540,
      "icon": 6541,
      "Ġspent": 6542,
      "ĠUN": 6543,
      "Ġeveryday": 6544,
      "Ġmachines": 6545,
      "Ġvent": 6546,
      "aker": 6547,
      "Ġrecommended": 6548,
      "Ġserved": 6549,
      "Ġdomestic": 6550,
      "Ġsmooth": 6551,
      "Ġlandscape": 6552,
      "Case": 6553,
      "ĨĴ": 6554,
      "Ġnor": 6555,
      "anted": 6556,
      "Ġnoise": 6557,
      "Ġ75": 6558,
      "ĠÐ¿": 6559,
      "Your": 6560,
      "%.": 6561,
      "ĠEv": 6562,
      "Ġdiscipl": 6563,
      "Ġoptim": 6564,
      "Ġremained": 6565,
      "Ġtips": 6566,
      "Ġ['": 6567,
      "Ġrecognized": 6568,
      "73": 6569,
      "Ġstret": 6570,
      "matrix": 6571,
      "ĠJews": 6572,
      "ä¸Ģä¸ª": 6573,
      "\").": 6574,
      "Ġobjective": 6575,
      "ĠNews": 6576,
      "Ġsurvival": 6577,
      "Ġmoist": 6578,
      "eros": 6579,
      "essor": 6580,
      "Ġphysic": 6581,
      "Em": 6582,
      "heric": 6583,
      "Ġextended": 6584,
      "Ġleader": 6585,
      "ĠSoviet": 6586,
      "inn": 6587,
      "Ġcomfort": 6588,
      "Ġachieved": 6589,
      "cohol": 6590,
      "Le": 6591,
      "phabet": 6592,
      "Ġæ": 6593,
      "Ġresol": 6594,
      "akers": 6595,
      "Ġclust": 6596,
      "Ġlocations": 6597,
      "she": 6598,
      "rian": 6599,
      "ĠDiv": 6600,
      "Ġaudience": 6601,
      "ĠÏĢ": 6602,
      "stein": 6603,
      "ĠPhil": 6604,
      "wood": 6605,
      "Ġunderstood": 6606,
      "Ġ'''": 6607,
      "Ġaccompl": 6608,
      "Ġvirtual": 6609,
      "61": 6610,
      "bin": 6611,
      "éĩ": 6612,
      "89": 6613,
      "Ġap": 6614,
      "Ġdistances": 6615,
      "Ġvulner": 6616,
      "Ġcart": 6617,
      "Ġfirm": 6618,
      "iday": 6619,
      "Ġdownload": 6620,
      "Ġcatch": 6621,
      "ĠToday": 6622,
      "Ġspecified": 6623,
      "Ġprofit": 6624,
      "Ġgarden": 6625,
      "éĵ": 6626,
      "Ġtum": 6627,
      "Ġattacks": 6628,
      "words": 6629,
      "Ġassignment": 6630,
      "Equ": 6631,
      "Ġstock": 6632,
      "Ġconcrete": 6633,
      "Ġverb": 6634,
      "ĠGovernment": 6635,
      "ĠSociety": 6636,
      "Ġå": 6637,
      "ĠAC": 6638,
      "Ġimproving": 6639,
      "ĠLearn": 6640,
      "Ġcoordinate": 6641,
      "Ġimmun": 6642,
      "rants": 6643,
      "Ã£": 6644,
      "ĠProt": 6645,
      "Ġgovernments": 6646,
      "Ġnaturally": 6647,
      "Ġsoldiers": 6648,
      "Using": 6649,
      "Ã¢": 6650,
      "Ġbeautiful": 6651,
      "Ġaren": 6652,
      "ths": 6653,
      "ĠPage": 6654,
      "earchers": 6655,
      "Ġacting": 6656,
      "Ġchemicals": 6657,
      "Ġperce": 6658,
      "06": 6659,
      "mm": 6660,
      "Ġcorrelation": 6661,
      "ĠJe": 6662,
      "osph": 6663,
      "ĠLa": 6664,
      "Ġ2006": 6665,
      "ĠDisc": 6666,
      "Ġpig": 6667,
      "Ġdict": 6668,
      "ĠAir": 6669,
      "Ġ(-": 6670,
      "pping": 6671,
      "Ġships": 6672,
      "Ġappearance": 6673,
      "Ġarchitecture": 6674,
      "Ġmir": 6675,
      "Ġmode": 6676,
      "Ġlose": 6677,
      "Ġblog": 6678,
      "ĠDesc": 6679,
      "Ġintellect": 6680,
      "ĠTechnology": 6681,
      "Cons": 6682,
      "isp": 6683,
      "ĠTex": 6684,
      "ĠSym": 6685,
      "plied": 6686,
      "Ġholes": 6687,
      "icit": 6688,
      "ĠSen": 6689,
      "ĠFe": 6690,
      "ĠFinally": 6691,
      "Ġmicrosc": 6692,
      "Ġnutrition": 6693,
      "points": 6694,
      "Ġabund": 6695,
      "Ġensuring": 6696,
      "UR": 6697,
      "Ġfort": 6698,
      "ĠKnow": 6699,
      "åŃĹ": 6700,
      "Per": 6701,
      "UN": 6702,
      "car": 6703,
      "ulas": 6704,
      "eline": 6705,
      "agnetic": 6706,
      "Ġlands": 6707,
      "Rec": 6708,
      "ĠIdent": 6709,
      "ouncil": 6710,
      "Ġbigger": 6711,
      "Ġslowly": 6712,
      "Ġresponsibility": 6713,
      "Ġlowest": 6714,
      "Ġdistributed": 6715,
      "Ġcomparison": 6716,
      "ĠCollege": 6717,
      "Ġtelesc": 6718,
      "Ġreject": 6719,
      "arning": 6720,
      "Ġrely": 6721,
      "Ġlinks": 6722,
      "athy": 6723,
      "Ġpriv": 6724,
      "Ġguarant": 6725,
      "hist": 6726,
      "Ġinstrument": 6727,
      "html": 6728,
      "ĠCirc": 6729,
      "Ġvaries": 6730,
      "velength": 6731,
      "Ġclar": 6732,
      "Ġprepare": 6733,
      "ny": 6734,
      "ĠRome": 6735,
      "Ġgravitational": 6736,
      "cs": 6737,
      "ogle": 6738,
      "conomic": 6739,
      "Ġcutting": 6740,
      "Ġperpendicular": 6741,
      "body": 6742,
      "oke": 6743,
      "zon": 6744,
      "Ġcraft": 6745,
      "Ġchronic": 6746,
      "Ġminute": 6747,
      "Object": 6748,
      "throp": 6749,
      "Ġcompr": 6750,
      "Ġmembrane": 6751,
      "gu": 6752,
      "Ġreserv": 6753,
      "Ġod": 6754,
      "Ġapparent": 6755,
      "Ġmanufacturing": 6756,
      "bes": 6757,
      "ĠMal": 6758,
      "Ġtheme": 6759,
      "gery": 6760,
      "ĠIsland": 6761,
      "rary": 6762,
      "Ġmamm": 6763,
      "ĠKey": 6764,
      "Ġadvoc": 6765,
      "Ġfertil": 6766,
      "Over": 6767,
      "ductor": 6768,
      "Ġscores": 6769,
      "DP": 6770,
      "Ġhaz": 6771,
      "è¾": 6772,
      "inosa": 6773,
      "ĠWhe": 6774,
      "rick": 6775,
      "ĠIII": 6776,
      "dig": 6777,
      "Ġheard": 6778,
      "Ġobservation": 6779,
      "Ġcere": 6780,
      "Ġfle": 6781,
      "Ġnoted": 6782,
      "Ġinstruments": 6783,
      "Ġcoefficient": 6784,
      "Ġkill": 6785,
      "Ġprey": 6786,
      "Ġcryst": 6787,
      "Ġorient": 6788,
      "mented": 6789,
      "ĠSea": 6790,
      "ĠPaul": 6791,
      "ribed": 6792,
      "Ġeru": 6793,
      "Ġhandle": 6794,
      "Ġanalog": 6795,
      "Ġparticipants": 6796,
      "ato": 6797,
      "````": 6798,
      "85": 6799,
      "ishes": 6800,
      "ĠNature": 6801,
      "Ġpregn": 6802,
      "Ġexercises": 6803,
      "EC": 6804,
      "olar": 6805,
      "abel": 6806,
      "Ġjoin": 6807,
      "Ġminerals": 6808,
      "Ġengaging": 6809,
      "sembly": 6810,
      "Ġple": 6811,
      "Ġsimultane": 6812,
      "conn": 6813,
      "Ġtreatments": 6814,
      "Ġaccepted": 6815,
      "Ġevolved": 6816,
      "Mat": 6817,
      "uels": 6818,
      "irds": 6819,
      "ĠLife": 6820,
      "Ġharmful": 6821,
      "Ġtissues": 6822,
      "Ġcircumst": 6823,
      "ĠOF": 6824,
      "Ġexciting": 6825,
      "Ġstrict": 6826,
      "Ã£o": 6827,
      "ĠSan": 6828,
      "Ġconsidering": 6829,
      "Ġtun": 6830,
      "ĠMem": 6831,
      "Ġdisapp": 6832,
      "Ġprotected": 6833,
      "Ġgreatly": 6834,
      "roid": 6835,
      "Ġongoing": 6836,
      "plex": 6837,
      "Ġdecay": 6838,
      "]]": 6839,
      "Ġampl": 6840,
      "ĠVirgin": 6841,
      "Ġnarrow": 6842,
      "Ġowners": 6843,
      "Ġrivers": 6844,
      "Ġsubstances": 6845,
      "Ġhop": 6846,
      "Ġsunlight": 6847,
      "reet": 6848,
      "ĠThanks": 6849,
      "Ġgenerations": 6850,
      "Ġbranch": 6851,
      "è¯": 6852,
      "Ġcong": 6853,
      "ĠNewton": 6854,
      "ĠSpain": 6855,
      "Ġmomentum": 6856,
      "Ġproportional": 6857,
      "uation": 6858,
      "ĠÐ²": 6859,
      "ĠEnergy": 6860,
      "ĠReading": 6861,
      "rices": 6862,
      "Ġsummary": 6863,
      "Ġpasses": 6864,
      "uilding": 6865,
      "App": 6866,
      "Me": 6867,
      "Ġ${\\": 6868,
      "Ġtube": 6869,
      "ĠSpe": 6870,
      "Ġstimul": 6871,
      "ĠMulti": 6872,
      "Ġreader": 6873,
      "Ġintroduce": 6874,
      "Sum": 6875,
      "craft": 6876,
      "è®": 6877,
      "ĠWhere": 6878,
      "Ġenab": 6879,
      "Ġcharged": 6880,
      "Ġsalt": 6881,
      "Ġequally": 6882,
      "under": 6883,
      "Ġske": 6884,
      "Ġfol": 6885,
      "Ġnoun": 6886,
      "ĠFood": 6887,
      "uing": 6888,
      "Ġ150": 6889,
      "rep": 6890,
      "OD": 6891,
      "ĠRo": 6892,
      "cluding": 6893,
      "ĠStudies": 6894,
      "Ġmolecule": 6895,
      "hi": 6896,
      "Ġaircraft": 6897,
      "inst": 6898,
      "Ġsell": 6899,
      "Ġfelt": 6900,
      "Ġbusinesses": 6901,
      "ĠRussia": 6902,
      "ĠPers": 6903,
      "Ġraw": 6904,
      "Ġschem": 6905,
      "Ġmechanisms": 6906,
      "Ġexcellent": 6907,
      "ĠFree": 6908,
      "weight": 6909,
      "Ġextensive": 6910,
      "*/": 6911,
      "la": 6912,
      "Ġflowers": 6913,
      "Ġreplaced": 6914,
      "making": 6915,
      "EST": 6916,
      "Ġimagine": 6917,
      "74": 6918,
      "ĠMil": 6919,
      "ĠOld": 6920,
      "Ġundefined": 6921,
      "ĠAB": 6922,
      "Then": 6923,
      "ĠGiven": 6924,
      "Ġlogical": 6925,
      "Ġinterpretation": 6926,
      "Ġweigh": 6927,
      "riers": 6928,
      "Ġmechanism": 6929,
      "rieved": 6930,
      "Ġemit": 6931,
      "Ġpossibility": 6932,
      "Ġtouch": 6933,
      "ç¬": 6934,
      "Ġmeth": 6935,
      "fil": 6936,
      "Ġsuc": 6937,
      "acci": 6938,
      "ĠAnalysis": 6939,
      "Ġhabitats": 6940,
      "Ġ^": 6941,
      "herent": 6942,
      "Ġlots": 6943,
      "ĠMary": 6944,
      "ĠBer": 6945,
      "Under": 6946,
      "Ġamb": 6947,
      "Ġfaced": 6948,
      "itness": 6949,
      "Ġgather": 6950,
      "izer": 6951,
      ">(": 6952,
      "Ġorgans": 6953,
      "Ġspin": 6954,
      "Ġtall": 6955,
      "Ġmac": 6956,
      "endment": 6957,
      "Ġpurs": 6958,
      "Ġdangerous": 6959,
      "iated": 6960,
      "Ġtoler": 6961,
      "Ġlbs": 6962,
      "ĠPort": 6963,
      "ĠLesson": 6964,
      "ibrium": 6965,
      "Ġclassical": 6966,
      "Ġartificial": 6967,
      "ĠConsider": 6968,
      "net": 6969,
      "icate": 6970,
      "plot": 6971,
      "åį¡": 6972,
      "Ġcrop": 6973,
      "Ġcentre": 6974,
      "dden": 6975,
      "Ġcircul": 6976,
      "ĠSep": 6977,
      "ĠEss": 6978,
      "Ġenables": 6979,
      "Ġplayers": 6980,
      "ĊĠĠĠĠĠĠĠĠĠĠĠĠĠĠĠĠĠĠĠĠĠĠĠ": 6981,
      "Ġcolonial": 6982,
      "ĠHence": 6983,
      "ĠDon": 6984,
      "ĠRober": 6985,
      "ĠCarol": 6986,
      "Ġvitamin": 6987,
      "Ġdust": 6988,
      "ĠTake": 6989,
      "ĠBr": 6990,
      "Ġobjectives": 6991,
      "Ġelectronic": 6992,
      "Ġmountain": 6993,
      "Ġbrown": 6994,
      "scale": 6995,
      "plete": 6996,
      "Ġminus": 6997,
      "Ġfinite": 6998,
      "onia": 6999,
      "Ġregularly": 7000,
      "ĠStart": 7001,
      "Ġtechnical": 7002,
      "PA": 7003,
      "ĠTer": 7004,
      "ĠLeg": 7005,
      "Ġsyndrome": 7006,
      "ln": 7007,
      "ĠMor": 7008,
      "Ġprem": 7009,
      "rastructure": 7010,
      "Class": 7011,
      "po": 7012,
      "aria": 7013,
      "Ġmaps": 7014,
      "Ġwavelength": 7015,
      "ĠNon": 7016,
      "Ġended": 7017,
      "Ġvolunt": 7018,
      "Des": 7019,
      "field": 7020,
      "Ñĩ": 7021,
      "ingly": 7022,
      "ĠPrin": 7023,
      "unc": 7024,
      "Ġmeeting": 7025,
      "ĠExplain": 7026,
      "Ġpersist": 7027,
      "Ġfruits": 7028,
      "Val": 7029,
      "tree": 7030,
      "Ġsudden": 7031,
      "Ġliteracy": 7032,
      "Ġdomain": 7033,
      "Ġphenomenon": 7034,
      "OM": 7035,
      "ĠAlex": 7036,
      "Ġarithmetic": 7037,
      "ĠVen": 7038,
      "Ġâİ": 7039,
      "ĠCreate": 7040,
      "ĠOff": 7041,
      "Ġreports": 7042,
      "cycl": 7043,
      "ĠAsk": 7044,
      "Ġhorm": 7045,
      "emia": 7046,
      "Ġ400": 7047,
      "?âĢĿ": 7048,
      "aur": 7049,
      "ĠpH": 7050,
      "Ġhex": 7051,
      "rice": 7052,
      "Ġempire": 7053,
      "ĠCharles": 7054,
      "spe": 7055,
      "Ġbind": 7056,
      "ĠProbability": 7057,
      "ĠAbout": 7058,
      "HT": 7059,
      "igma": 7060,
      "Ġstrings": 7061,
      "Ġtour": 7062,
      "Ġdepict": 7063,
      "Ġsuccessfully": 7064,
      "Ġordered": 7065,
      "Ġadopted": 7066,
      "ä¸º": 7067,
      "Ġadvantages": 7068,
      "Ġbiodiversity": 7069,
      "Ġchurch": 7070,
      "96": 7071,
      "doc": 7072,
      "Ġorganized": 7073,
      "Ġprocedures": 7074,
      "Ġcouple": 7075,
      ")\\": 7076,
      "]);": 7077,
      "ractions": 7078,
      "Ġ48": 7079,
      "Ġinstant": 7080,
      "Ġlists": 7081,
      "Ġfourth": 7082,
      "Ġdimension": 7083,
      "OS": 7084,
      "Which": 7085,
      "Ġsatellite": 7086,
      "Ġoun": 7087,
      "Ġdri": 7088,
      "rand": 7089,
      "Char": 7090,
      "Ġmoral": 7091,
      "Ġadjacent": 7092,
      "align": 7093,
      "Ġbud": 7094,
      "Ġstatistical": 7095,
      "ipping": 7096,
      "æľī": 7097,
      "atever": 7098,
      "ĠGal": 7099,
      "Ġinjury": 7100,
      "53": 7101,
      "Ġum": 7102,
      "Ġstom": 7103,
      "ikip": 7104,
      "Ġcontained": 7105,
      "Ġsensitive": 7106,
      "Ġcollaboration": 7107,
      "Ġguidelines": 7108,
      "71": 7109,
      "OL": 7110,
      "Ġsick": 7111,
      "Ġgap": 7112,
      "Ġgraphs": 7113,
      "umps": 7114,
      "ij": 7115,
      "Ġexpensive": 7116,
      "Ġ};": 7117,
      "Ġmetric": 7118,
      "Ġpassing": 7119,
      "Ġmedications": 7120,
      "ĠLinear": 7121,
      "rateg": 7122,
      "Ġmarg": 7123,
      "isis": 7124,
      "Ġpp": 7125,
      "trans": 7126,
      "ĠPractice": 7127,
      "Once": 7128,
      "ĠSpec": 7129,
      "ador": 7130,
      "lar": 7131,
      "Ġcharges": 7132,
      "Get": 7133,
      "æī": 7134,
      "Ġ~": 7135,
      "ĠDown": 7136,
      "Ġtraits": 7137,
      "Ġ});": 7138,
      "Ġintegration": 7139,
      "Ġthermal": 7140,
      "pread": 7141,
      "ĠDate": 7142,
      "ĠGraph": 7143,
      "Ġcoastal": 7144,
      "Ġsales": 7145,
      "Ġlegs": 7146,
      "Ġmanufacture": 7147,
      "Other": 7148,
      "Ġ120": 7149,
      "ĠAND": 7150,
      "ikipedia": 7151,
      "normal": 7152,
      "Ġlisted": 7153,
      "Ġseparated": 7154,
      "Ġmonitoring": 7155,
      "ĠTexas": 7156,
      "åĢ": 7157,
      "essage": 7158,
      "Ġcareful": 7159,
      "ÂłÂłÂłÂłÂłÂłÂłÂł": 7160,
      "Ġdemocracy": 7161,
      "Ġsolved": 7162,
      "ĠOnly": 7163,
      "Ġethnic": 7164,
      "Ġtick": 7165,
      "Ġinher": 7166,
      "opic": 7167,
      "aint": 7168,
      "achin": 7169,
      "ĠVector": 7170,
      "teen": 7171,
      "Ġboolean": 7172,
      "ĠTHE": 7173,
      "Ġcloud": 7174,
      "Ġacids": 7175,
      "Ġsupporting": 7176,
      "Ġtons": 7177,
      "ĠNext": 7178,
      "Ġsubstant": 7179,
      "Ġaqu": 7180,
      "ĠSing": 7181,
      "Ġprincipal": 7182,
      "Ġarchae": 7183,
      "ĠLouis": 7184,
      "IM": 7185,
      "Ġdriving": 7186,
      "Ġconstructed": 7187,
      "aughter": 7188,
      "onacci": 7189,
      "uns": 7190,
      "Ġpartial": 7191,
      "ĠAnswer": 7192,
      "Ġprofessor": 7193,
      "Ġvehicles": 7194,
      "Ġcra": 7195,
      "Ġhem": 7196,
      "Ġwriter": 7197,
      "51": 7198,
      "ĠCap": 7199,
      "Ġdynamic": 7200,
      "æł": 7201,
      "ceans": 7202,
      "Ġalle": 7203,
      "Ġneur": 7204,
      "called": 7205,
      "verty": 7206,
      "Ġbuff": 7207,
      "Ġruns": 7208,
      "Ġcontemporary": 7209,
      "ucl": 7210,
      "reed": 7211,
      "ĠRad": 7212,
      "agine": 7213,
      "Ġcomplement": 7214,
      "Ġdetermining": 7215,
      "Ġbroken": 7216,
      "Ġforming": 7217,
      "ĠWhite": 7218,
      "etime": 7219,
      "cluded": 7220,
      "Ġfunctional": 7221,
      "Ġpoverty": 7222,
      "rm": 7223,
      "ester": 7224,
      "Ġmere": 7225,
      "ensus": 7226,
      "Ġpapers": 7227,
      "Ġfaces": 7228,
      "Ġoffered": 7229,
      "Ġaccounts": 7230,
      "ourage": 7231,
      "Ġinitially": 7232,
      "Ã³": 7233,
      "ouds": 7234,
      "ĠBook": 7235,
      "bert": 7236,
      "Ġinfect": 7237,
      "Ġfalls": 7238,
      "Ġsizes": 7239,
      "Ġpark": 7240,
      "icy": 7241,
      "Ġpros": 7242,
      "ĠRich": 7243,
      "Ġpassage": 7244,
      "Ġfilm": 7245,
      "Ġpossibly": 7246,
      "Ġshad": 7247,
      "Ġdiss": 7248,
      "hav": 7249,
      "person": 7250,
      "ĠHen": 7251,
      "Ġthanks": 7252,
      "Ġzone": 7253,
      "Ġcharacteristic": 7254,
      ")*": 7255,
      "ĠTheorem": 7256,
      ")+": 7257,
      "ĠCult": 7258,
      "ĠTheory": 7259,
      "ĠCam": 7260,
      "ĠOh": 7261,
      "ĠDavid": 7262,
      "bles": 7263,
      "kes": 7264,
      "atial": 7265,
      "Ġadequ": 7266,
      "Ġemployed": 7267,
      "enaissance": 7268,
      "Are": 7269,
      "wer": 7270,
      "Pe": 7271,
      "Ġmusical": 7272,
      "Ġaccurately": 7273,
      "Ġkilograms": 7274,
      "ĠCath": 7275,
      "Ġmedicine": 7276,
      "ĠNumbers": 7277,
      "ĠNet": 7278,
      "Ġparties": 7279,
      "Ġgirls": 7280,
      "ĠĠĠĠĠĠĠĠĠĠĠĠĠĠĠĠĠĠĠĠĠĠĠĠĠĠĠĠĠĠĠĠ": 7281,
      "den": 7282,
      "ĠTem": 7283,
      "Ġbin": 7284,
      "Ġopinion": 7285,
      "DE": 7286,
      "Ġcash": 7287,
      "sem": 7288,
      "abil": 7289,
      "ounced": 7290,
      "Ġinternet": 7291,
      "Ġharvest": 7292,
      "US": 7293,
      "ĊĊĉ": 7294,
      "Ġbees": 7295,
      "ĠSign": 7296,
      "abs": 7297,
      "Ġextends": 7298,
      "ymph": 7299,
      "Ġintensity": 7300,
      "check": 7301,
      "Ġperspectives": 7302,
      "inity": 7303,
      "orical": 7304,
      "ĠMax": 7305,
      "Ġturning": 7306,
      "Ġsecure": 7307,
      "Ġpuzzle": 7308,
      "ĠCa": 7309,
      "Ġidentifying": 7310,
      "Ġfix": 7311,
      "Ġbonds": 7312,
      "ĠWord": 7313,
      "Ġdiagonal": 7314,
      "np": 7315,
      "Ġalcohol": 7316,
      "oples": 7317,
      "ateral": 7318,
      "returns": 7319,
      "ĠMain": 7320,
      "ĠMich": 7321,
      "rust": 7322,
      "Ġconqu": 7323,
      "ĠLin": 7324,
      "Ġentry": 7325,
      "olester": 7326,
      "Ġdefinite": 7327,
      "Â²": 7328,
      "ĠFin": 7329,
      "Ġusage": 7330,
      "Ġdeliver": 7331,
      "Ġpolitics": 7332,
      "umes": 7333,
      "Ġcertainly": 7334,
      "Ġdynamics": 7335,
      "Ġcircumstances": 7336,
      "ĠArab": 7337,
      "ighter": 7338,
      "ĠNorthern": 7339,
      "elled": 7340,
      "Ġcalls": 7341,
      "cers": 7342,
      "Ġmm": 7343,
      "ota": 7344,
      "Ġvehicle": 7345,
      "Ġuncertain": 7346,
      "Ġmort": 7347,
      "Ġnest": 7348,
      "Ġvac": 7349,
      "idespread": 7350,
      "Ġcopper": 7351,
      "gent": 7352,
      "Ġartists": 7353,
      "Ġserves": 7354,
      "ĠPlay": 7355,
      "Ġentirely": 7356,
      "Ġprofessionals": 7357,
      "CE": 7358,
      "Def": 7359,
      "oir": 7360,
      "Ġtur": 7361,
      "Ġdiffer": 7362,
      "ĠInternet": 7363,
      "None": 7364,
      "Use": 7365,
      "cm": 7366,
      "čĊĠ": 7367,
      "elta": 7368,
      "ĠIntroduction": 7369,
      "CH": 7370,
      "pass": 7371,
      "asive": 7372,
      "Ġretain": 7373,
      "Ġinfrastructure": 7374,
      "âĤ¬": 7375,
      "Ġchlor": 7376,
      "Ġresulted": 7377,
      "ka": 7378,
      "itage": 7379,
      "ums": 7380,
      "ĠNov": 7381,
      "ĠParis": 7382,
      "Ġtroops": 7383,
      "circ": 7384,
      "Ġparameter": 7385,
      "Ġintellectual": 7386,
      "Ġbag": 7387,
      "Ġmanif": 7388,
      "Ġphrase": 7389,
      "æĪ": 7390,
      "ĠBen": 7391,
      "tee": 7392,
      "Ġtheoretical": 7393,
      "ĠCalculate": 7394,
      "ga": 7395,
      "indu": 7396,
      "Ġthread": 7397,
      "Ġapplying": 7398,
      "Ġ2022": 7399,
      "Ġconcerned": 7400,
      "ĠAcad": 7401,
      "ĠHomework": 7402,
      "kg": 7403,
      "oric": 7404,
      "Ġcompute": 7405,
      "Ġtransportation": 7406,
      "van": 7407,
      "ĠJes": 7408,
      "ĠPrint": 7409,
      "Ġbranches": 7410,
      "Ġnerve": 7411,
      "Ġtested": 7412,
      "Ġnecessarily": 7413,
      "Ġconverted": 7414,
      "Ġaster": 7415,
      "Ġcovers": 7416,
      "ĠWeb": 7417,
      "Ġpossibilities": 7418,
      "Ġbits": 7419,
      "ĠFederal": 7420,
      "Ġboundaries": 7421,
      "Ġphilosophy": 7422,
      "Ġclinical": 7423,
      "itz": 7424,
      "Ġdot": 7425,
      "ogue": 7426,
      "Ġdesert": 7427,
      "Ġcreativity": 7428,
      "Ġreaches": 7429,
      "Ġrank": 7430,
      "ĠChange": 7431,
      "Ġeastern": 7432,
      "Ġreduces": 7433,
      "Ġcareer": 7434,
      "Ġparticipate": 7435,
      "Ġgained": 7436,
      "Ġbio": 7437,
      "Ġperm": 7438,
      "Ġdebate": 7439,
      "ĠCounty": 7440,
      "itivity": 7441,
      "Ġremark": 7442,
      "Ġbeneficial": 7443,
      "Ġdividing": 7444,
      "Ġconvey": 7445,
      "Input": 7446,
      "ĠAssociation": 7447,
      "Ed": 7448,
      "Ġreven": 7449,
      "Ġ(\"": 7450,
      "Ġobj": 7451,
      "Ġpromoting": 7452,
      "Ass": 7453,
      "ĠIr": 7454,
      "Ġabstract": 7455,
      "Ġsupports": 7456,
      "ĠColor": 7457,
      "Ġsucceed": 7458,
      "urity": 7459,
      "Ġcrisis": 7460,
      "Ġrecognition": 7461,
      "Ġdecline": 7462,
      "Ġabsorb": 7463,
      "Rem": 7464,
      "See": 7465,
      "Ġeducators": 7466,
      "ĠVirginia": 7467,
      "fish": 7468,
      "ĠKore": 7469,
      "Ġvariance": 7470,
      "Ġcourses": 7471,
      "ERT": 7472,
      "Ġbreathing": 7473,
      "box": 7474,
      "div": 7475,
      "ĠAcc": 7476,
      "ĠPo": 7477,
      "Ġpresentation": 7478,
      "Ġequilibrium": 7479,
      "ait": 7480,
      "zed": 7481,
      "Ġsampl": 7482,
      "Ġpound": 7483,
      "ĠBefore": 7484,
      "Ġidentical": 7485,
      "Ġmilk": 7486,
      "packages": 7487,
      "Ġvessels": 7488,
      "æ³": 7489,
      "Ġion": 7490,
      "Ġbeam": 7491,
      "Ġjobs": 7492,
      "Ġimplications": 7493,
      "Ġconventional": 7494,
      "olesterol": 7495,
      "IG": 7496,
      "Ġthor": 7497,
      "Ġfocuses": 7498,
      "ĠInteg": 7499,
      "sachin": 7500,
      "ĠTri": 7501,
      "ĠAM": 7502,
      "ĠWomen": 7503,
      "ĠRemember": 7504,
      "Before": 7505,
      "ĠCreat": 7506,
      "Ġsupplies": 7507,
      "Ġhabits": 7508,
      "ĠHam": 7509,
      "ĠHaw": 7510,
      "Ġpredators": 7511,
      "Ġhydro": 7512,
      "Ġquiz": 7513,
      "........": 7514,
      "Ġcompetition": 7515,
      "Ġbow": 7516,
      "etics": 7517,
      "Ġwidespread": 7518,
      "Ġpand": 7519,
      "arly": 7520,
      "oul": 7521,
      "utch": 7522,
      "acts": 7523,
      "Ġinteractive": 7524,
      "Ġmetals": 7525,
      "Ġgradually": 7526,
      "Ġmammals": 7527,
      "Given": 7528,
      "rial": 7529,
      "Ġsan": 7530,
      "Ġlic": 7531,
      ")))": 7532,
      "Ġsettings": 7533,
      "Ġframework": 7534,
      "abric": 7535,
      "Ġintersection": 7536,
      "obj": 7537,
      "ĠEarly": 7538,
      "Ġdominant": 7539,
      ")-": 7540,
      "ns": 7541,
      "rag": 7542,
      "Ġfewer": 7543,
      "ĠColumb": 7544,
      "Ġtropical": 7545,
      "ĠDou": 7546,
      "ĠOper": 7547,
      "archy": 7548,
      "','": 7549,
      "Ġalert": 7550,
      "ĠGroup": 7551,
      "Ġexplicit": 7552,
      "Ġstands": 7553,
      "Ġinflammation": 7554,
      "Count": 7555,
      "Orig": 7556,
      "cular": 7557,
      "Ġlingu": 7558,
      "quit": 7559,
      "Ġregardless": 7560,
      "edge": 7561,
      "Ġtraum": 7562,
      "Ġtraditions": 7563,
      "Inter": 7564,
      "Ġappeared": 7565,
      "ĠVis": 7566,
      "Ġrecycling": 7567,
      "diff": 7568,
      "ho": 7569,
      "ien": 7570,
      "Ġmeat": 7571,
      "Ġparas": 7572,
      "Ġbiggest": 7573,
      "istan": 7574,
      "ivated": 7575,
      "âĢĻ,": 7576,
      "Ġbool": 7577,
      "ĠIsra": 7578,
      "Ġdatas": 7579,
      "Please": 7580,
      "burg": 7581,
      "Ġshaped": 7582,
      "Ġconve": 7583,
      "Ġpersons": 7584,
      "lamb": 7585,
      "ĠMean": 7586,
      "Ġindustries": 7587,
      "Ġreinforce": 7588,
      "Yes": 7589,
      "ĠPerson": 7590,
      "cium": 7591,
      "Ġconsult": 7592,
      "Ġincred": 7593,
      "ĠProv": 7594,
      "Ġnewsp": 7595,
      "Ġfarming": 7596,
      "ĠSection": 7597,
      "agon": 7598,
      "Also": 7599,
      "ogether": 7600,
      "apes": 7601,
      "ĠJun": 7602,
      "(){": 7603,
      "urance": 7604,
      "Ġlisten": 7605,
      "Ġsocieties": 7606,
      "Ġlatter": 7607,
      "Ġcamera": 7608,
      "Ġshorter": 7609,
      "earing": 7610,
      "Ġamaz": 7611,
      "Ġheads": 7612,
      "Ġroughly": 7613,
      "imer": 7614,
      "Ġpoem": 7615,
      "Ġinterior": 7616,
      "Ġopening": 7617,
      "Ġliterary": 7618,
      "Ġwildlife": 7619,
      "Ġpix": 7620,
      "berg": 7621,
      "Ġtrick": 7622,
      "Ġflash": 7623,
      "QU": 7624,
      "ĠInformation": 7625,
      "Answer": 7626,
      "ĠRussian": 7627,
      "Next": 7628,
      "ĠÑģ": 7629,
      "Ġdinosa": 7630,
      "irus": 7631,
      "Ġmeaningful": 7632,
      "Ġreliable": 7633,
      "Ġintervention": 7634,
      "Ġescape": 7635,
      "write": 7636,
      "ibly": 7637,
      "Ġregional": 7638,
      "tenance": 7639,
      "Ġseeking": 7640,
      "Ġlegisl": 7641,
      ")}": 7642,
      "rot": 7643,
      "ĠSometimes": 7644,
      "ĠRenaissance": 7645,
      "Ġgrown": 7646,
      "87": 7647,
      "asty": 7648,
      "Ġsurgery": 7649,
      "Ġ2004": 7650,
      "ĠProblems": 7651,
      "Ġrespiratory": 7652,
      "PL": 7653,
      "ĠEvent": 7654,
      "agues": 7655,
      "ĠThomas": 7656,
      "Ġproved": 7657,
      "Ġcomputing": 7658,
      "Ġnearby": 7659,
      "Ġmolecular": 7660,
      "Because": 7661,
      "free": 7662,
      "hered": 7663,
      "Ġrevers": 7664,
      "Ġrural": 7665,
      "ĠGa": 7666,
      "ĠThree": 7667,
      "ipher": 7668,
      "Ġcalculating": 7669,
      "}{\\": 7670,
      "IL": 7671,
      "Ġmathematic": 7672,
      "Ġsorted": 7673,
      "Ġunable": 7674,
      "Ġbreeding": 7675,
      "Ġsubtraction": 7676,
      "Co": 7677,
      "TH": 7678,
      "osition": 7679,
      "ifications": 7680,
      "Ġstrengthen": 7681,
      "Ġestimates": 7682,
      "Tree": 7683,
      "itan": 7684,
      "Ġessentially": 7685,
      "Ġnervous": 7686,
      "ĠItaly": 7687,
      "nums": 7688,
      "Ġtransformation": 7689,
      "({": 7690,
      "Ġanalyzing": 7691,
      "ĠDespite": 7692,
      "ĠSimilarly": 7693,
      "97": 7694,
      "adian": 7695,
      "Ġcomments": 7696,
      "Ġoutl": 7697,
      "ĊĠĠĠĠĠĠĠĠĠĠĠĠĠĠĠĠĠĠĠĠĠĠĠĠ": 7698,
      "Ġimprovement": 7699,
      "Ġassigned": 7700,
      "Ġstomach": 7701,
      "Ġfuels": 7702,
      "ĠLook": 7703,
      "Ġsports": 7704,
      "prot": 7705,
      "Ġpurchase": 7706,
      "éĵ¶": 7707,
      "Set": 7708,
      "Ġ34": 7709,
      "Ġformulas": 7710,
      "Ġengagement": 7711,
      "Ġrecip": 7712,
      "ĠKeep": 7713,
      "ella": 7714,
      "Ġdisplacement": 7715,
      "ushed": 7716,
      "ĠLand": 7717,
      "Ġregression": 7718,
      "iotics": 7719,
      "Where": 7720,
      "icing": 7721,
      "Ġvariations": 7722,
      "Ġcircles": 7723,
      "ĠTry": 7724,
      "iration": 7725,
      "Ġconscious": 7726,
      "Ġpupils": 7727,
      "ĠAtlantic": 7728,
      "medi": 7729,
      "cknow": 7730,
      "Ġfemales": 7731,
      "Ġalgebraic": 7732,
      "Ġoceans": 7733,
      "ese": 7734,
      "Ġknowing": 7735,
      "Ġpermanent": 7736,
      "Ġnine": 7737,
      "Ġcomparing": 7738,
      "Ġshel": 7739,
      "Ġethical": 7740,
      "Enter": 7741,
      "Ġsubsequent": 7742,
      "Ġdesigns": 7743,
      "Ġoccurring": 7744,
      "Ġtoxic": 7745,
      "erb": 7746,
      "sts": 7747,
      "ĠNOT": 7748,
      "ĠLong": 7749,
      "Ġpresc": 7750,
      "Ġfailed": 7751,
      "Ġmales": 7752,
      "Ġshut": 7753,
      "Ġphon": 7754,
      "Ġflag": 7755,
      "True": 7756,
      "height": 7757,
      "++;": 7758,
      "Ġalphabet": 7759,
      "assert": 7760,
      "ĠZe": 7761,
      "ĠMaths": 7762,
      "Ġell": 7763,
      "idity": 7764,
      "Ġunless": 7765,
      "Ġmanaged": 7766,
      "ailed": 7767,
      "coming": 7768,
      "Therefore": 7769,
      "Ġbrother": 7770,
      "ĠDesign": 7771,
      "ä¹": 7772,
      "Ġvideos": 7773,
      "Ġdestroyed": 7774,
      "CD": 7775,
      "stone": 7776,
      "Ġappoint": 7777,
      "Ġsteel": 7778,
      "rapy": 7779,
      "ĠPublic": 7780,
      "Ġintersect": 7781,
      "ĠDemoc": 7782,
      "Ġfascinating": 7783,
      "ĠAP": 7784,
      "ĠRom": 7785,
      "oving": 7786,
      "Test": 7787,
      "arest": 7788,
      "Ġstructural": 7789,
      "Ġlatest": 7790,
      "Supp": 7791,
      "Ġalign": 7792,
      "ĠEffect": 7793,
      "Ġfocusing": 7794,
      "Ġfacing": 7795,
      "ĠDifferent": 7796,
      "Ġmitig": 7797,
      "Ġislands": 7798,
      "ĠCD": 7799,
      "ÂłÂłÂł": 7800,
      "Ġrising": 7801,
      "Ġspectrum": 7802,
      "items": 7803,
      "ĠGood": 7804,
      "hemistry": 7805,
      "ĠBig": 7806,
      "Ġintervals": 7807,
      "ĠParliament": 7808,
      "å¼": 7809,
      "Ġhappening": 7810,
      "Ġbiology": 7811,
      "Ġrhyth": 7812,
      "has": 7813,
      "Ġreform": 7814,
      "ĠPal": 7815,
      "Ġclassified": 7816,
      "Ġfacilities": 7817,
      "Ġleadership": 7818,
      "Ġphotosynt": 7819,
      "des": 7820,
      "fill": 7821,
      "sk": 7822,
      "éĢ": 7823,
      "asters": 7824,
      "Ġprison": 7825,
      "Ġsmart": 7826,
      "hma": 7827,
      "Ġ\",": 7828,
      "ĠClimate": 7829,
      "Ġlaun": 7830,
      "Ġlifest": 7831,
      "ĠPython": 7832,
      "Ġsight": 7833,
      "ĠEst": 7834,
      "perty": 7835,
      "ĠLog": 7836,
      "ourse": 7837,
      "Ġchemistry": 7838,
      "Cur": 7839,
      "åľ": 7840,
      "ulin": 7841,
      "Ġrays": 7842,
      "Ġdocuments": 7843,
      "Ġoriginally": 7844,
      "Ġcomprehension": 7845,
      "Che": 7846,
      "Sol": 7847,
      "cal": 7848,
      "Ġtension": 7849,
      "romise": 7850,
      "ello": 7851,
      "Ġ42": 7852,
      "Ġ2003": 7853,
      "Ġfilter": 7854,
      "ĠRetrieved": 7855,
      "Ġlungs": 7856,
      "ĠRobert": 7857,
      "lambda": 7858,
      "oto": 7859,
      "Ġgalaxies": 7860,
      "alian": 7861,
      "ĠTable": 7862,
      "ects": 7863,
      "------------": 7864,
      "Ġautism": 7865,
      "ĠWho": 7866,
      "Ġdifficulties": 7867,
      "Ġpainting": 7868,
      "Ġapproxim": 7869,
      "Ġreef": 7870,
      "Ġjoined": 7871,
      "Ġoperate": 7872,
      "Ġgeometric": 7873,
      "ĠWorksheets": 7874,
      "-\\": 7875,
      "zen": 7876,
      "isher": 7877,
      "ĠNav": 7878,
      "Ġabol": 7879,
      "Ġrevealed": 7880,
      "Ġquarter": 7881,
      "Ġsediment": 7882,
      "Ab": 7883,
      "Ġimmediate": 7884,
      "Ġju": 7885,
      "arsh": 7886,
      "Ġcardi": 7887,
      "ĠMuslim": 7888,
      "MA": 7889,
      "post": 7890,
      "rine": 7891,
      "Ġble": 7892,
      "Ġadvice": 7893,
      "Ġcond": 7894,
      "Ġdelay": 7895,
      "real": 7896,
      "Ġcav": 7897,
      "Ġmild": 7898,
      "Ġcritic": 7899,
      "ĠImport": 7900,
      "čĊĠĠĠĠĠĠĠĠĠĠĠĠĠĠĠ": 7901,
      "ĠWriting": 7902,
      "orted": 7903,
      "Ġconversation": 7904,
      "nel": 7905,
      "uity": 7906,
      "riage": 7907,
      "Ġdifferential": 7908,
      "Ġwriters": 7909,
      "ĠIslam": 7910,
      "Mod": 7911,
      "OW": 7912,
      "Ġinject": 7913,
      "Ġarms": 7914,
      "Ġthemes": 7915,
      "score": 7916,
      "Ġpsychology": 7917,
      "Ġqueue": 7918,
      "mun": 7919,
      "ĠFollow": 7920,
      "Ġlistening": 7921,
      "Key": 7922,
      "Wor": 7923,
      "ras": 7924,
      "Ġahead": 7925,
      "Ġnose": 7926,
      "ĠSal": 7927,
      "ĠMet": 7928,
      "Ġcontamin": 7929,
      "Ġarc": 7930,
      "Ġtermin": 7931,
      "Size": 7932,
      "zes": 7933,
      "Ġbelief": 7934,
      "Ġdefinitions": 7935,
      "Ġfavorite": 7936,
      "Ġstability": 7937,
      "ocy": 7938,
      "Ġcaptured": 7939,
      "HD": 7940,
      "ĠDraw": 7941,
      "oves": 7942,
      "Ġinstall": 7943,
      "ĠContin": 7944,
      "American": 7945,
      "Ġduration": 7946,
      "Ġconven": 7947,
      "ĠFre": 7948,
      "ercise": 7949,
      ",\\": 7950,
      "lock": 7951,
      "Ġliver": 7952,
      "Ġstyles": 7953,
      "ĠNations": 7954,
      "Ġtaxes": 7955,
      "81": 7956,
      "erior": 7957,
      "ften": 7958,
      "Ġfrequent": 7959,
      "Ġrenewable": 7960,
      "fe": 7961,
      "Ġweap": 7962,
      "Ġinsight": 7963,
      "Ġaims": 7964,
      "Ġindeed": 7965,
      "oved": 7966,
      "Ġgrew": 7967,
      "Ġvictim": 7968,
      "abin": 7969,
      "Ġ33": 7970,
      "Sp": 7971,
      "Ġë": 7972,
      "amma": 7973,
      "ĠObs": 7974,
      "ĠUnit": 7975,
      "Ġanalys": 7976,
      "Ġexert": 7977,
      "Ġplates": 7978,
      "ĠAntar": 7979,
      "Ġatomic": 7980,
      "erver": 7981,
      "ĠMac": 7982,
      "ĠBal": 7983,
      "ĠFour": 7984,
      "Ġwheel": 7985,
      "vari": 7986,
      "iled": 7987,
      "ools": 7988,
      "Ġoffic": 7989,
      "ĠService": 7990,
      "84": 7991,
      "ĠSam": 7992,
      "rency": 7993,
      "ĠYear": 7994,
      "Ġsigned": 7995,
      "Ġdescript": 7996,
      "Ġroutine": 7997,
      "http": 7998,
      "Ġinclusive": 7999,
      "âĢĺ": 8000,
      "Ġclouds": 8001,
      "Ġfeeding": 8002,
      "Ġhouses": 8003,
      "Ġgrammar": 8004,
      "ĠSup": 8005,
      "Ġvegetables": 8006,
      "arb": 8007,
      "Ġheating": 8008,
      "apse": 8009,
      "enses": 8010,
      "ependent": 8011,
      "Ġ1990": 8012,
      "Ġemerged": 8013,
      "86": 8014,
      "perm": 8015,
      "Ġsole": 8016,
      "Ġexperimental": 8017,
      "Ġfossils": 8018,
      "Ġcubic": 8019,
      "Ġpeoples": 8020,
      "Ġmaybe": 8021,
      "ĠConst": 8022,
      "Ġdemonstrated": 8023,
      "Joined": 8024,
      "Part": 8025,
      "alpha": 8026,
      "Ġfought": 8027,
      "atively": 8028,
      "Ġassumed": 8029,
      "Ġaimed": 8030,
      "Ġdollars": 8031,
      "Ġsector": 8032,
      "ĠSciences": 8033,
      "Ġtrip": 8034,
      "Ġstronger": 8035,
      "92": 8036,
      "ĠMicro": 8037,
      "Ġputting": 8038,
      "Ġemergency": 8039,
      "Ã¶": 8040,
      "lower": 8041,
      "Ġerosion": 8042,
      "Ġswim": 8043,
      "Ġmessages": 8044,
      "Ġunus": 8045,
      "Ġcontainer": 8046,
      "Ġinputs": 8047,
      "Ġtangent": 8048,
      "you": 8049,
      "Ġpiv": 8050,
      "Ġsupposed": 8051,
      "Ġcombinations": 8052,
      "Ġmorning": 8053,
      "Ġinvestigate": 8054,
      "iotic": 8055,
      "Ġmigration": 8056,
      "Ġfighting": 8057,
      "ĠEastern": 8058,
      "Ġnucleus": 8059,
      "Ġpin": 8060,
      "ĠEnd": 8061,
      "Ġneither": 8062,
      "ĠParty": 8063,
      "Ġtruly": 8064,
      "bet": 8065,
      "Ġwish": 8066,
      "Ġ\")": 8067,
      "Ġmatters": 8068,
      "Ġ180": 8069,
      "Ġcreatures": 8070,
      "Ġimplemented": 8071,
      "Am": 8072,
      "ĠCurrent": 8073,
      "Ġtrouble": 8074,
      "cards": 8075,
      "ĠJud": 8076,
      "Ġinstruct": 8077,
      "Ġpsychological": 8078,
      "Ġmultiplying": 8079,
      "Ġnice": 8080,
      "Ġtwenty": 8081,
      "Ġelection": 8082,
      "float": 8083,
      "[\"": 8084,
      "itt": 8085,
      "Ġ},": 8086,
      "Ġma": 8087,
      "Ġbutton": 8088,
      "Ġdecom": 8089,
      "Ġdoor": 8090,
      "Ġgrand": 8091,
      "Ġprinting": 8092,
      "Ġevaluation": 8093,
      "Ġforget": 8094,
      "Ġlect": 8095,
      "Ġarbit": 8096,
      "Ġunion": 8097,
      "Ġindigenous": 8098,
      "Ġexamination": 8099,
      "Ġexplo": 8100,
      "Ġcriteria": 8101,
      "oken": 8102,
      "Dig": 8103,
      "ĠDeterm": 8104,
      "Ġinformed": 8105,
      "Ġlengths": 8106,
      "Ġrevol": 8107,
      "Ġexpectations": 8108,
      "ĠDefinition": 8109,
      "elihood": 8110,
      "Ref": 8111,
      "âĸ": 8112,
      "Ġdifferently": 8113,
      "Ġtal": 8114,
      "Ġmos": 8115,
      "abase": 8116,
      "ĠNorm": 8117,
      "ucose": 8118,
      "Ġminim": 8119,
      "fortunately": 8120,
      "Ġoz": 8121,
      "ĠThose": 8122,
      "join": 8123,
      "Ġstanding": 8124,
      "Ġvisited": 8125,
      "Ġballs": 8126,
      "\"]": 8127,
      "Ġcholesterol": 8128,
      "Ġseeing": 8129,
      "Ġcurrents": 8130,
      "Ġhappy": 8131,
      "Ġdealing": 8132,
      "Ġroute": 8133,
      "ĠEngineering": 8134,
      "Gen": 8135,
      "Ġ-=": 8136,
      "Ġobst": 8137,
      "su": 8138,
      "ç´": 8139,
      "ini": 8140,
      "Ġdedic": 8141,
      "Ġdispl": 8142,
      "Ġarrived": 8143,
      "Ġmountains": 8144,
      "ĠConfed": 8145,
      "());": 8146,
      "Ġcolleagues": 8147,
      "Ġtribes": 8148,
      "hent": 8149,
      "Ġlibrary": 8150,
      "utation": 8151,
      "keys": 8152,
      "Ġdissol": 8153,
      "ieval": 8154,
      "Ġ1960": 8155,
      "```": 8156,
      "Ġconsideration": 8157,
      "ĠStatistics": 8158,
      "Ġbanks": 8159,
      "Ġpreced": 8160,
      "Ġengaged": 8161,
      "Ġprominent": 8162,
      "ä»¥": 8163,
      "Ġounces": 8164,
      "Ġintense": 8165,
      "ĠArctic": 8166,
      "Ġcycl": 8167,
      "ĠIsrael": 8168,
      "Line": 8169,
      "Ġdictionary": 8170,
      "2017": 8171,
      "draw": 8172,
      "Ġdys": 8173,
      "Ġradi": 8174,
      "asked": 8175,
      "ĠSolutions": 8176,
      "game": 8177,
      "Ġhidden": 8178,
      "Ġroof": 8179,
      "ubble": 8180,
      "ibonacci": 8181,
      "Ġsquared": 8182,
      "ĠCC": 8183,
      "Ġdisrupt": 8184,
      "Ġargue": 8185,
      "ĠJesus": 8186,
      "onents": 8187,
      "Ġfabric": 8188,
      "second": 8189,
      "ĊĠĠĠĠĠĠĠĠĊĠĠĠĠĠĠĠ": 8190,
      "Ġdisturb": 8191,
      "Ġextend": 8192,
      "ä¸į": 8193,
      "Ġassumptions": 8194,
      "Ġillustrate": 8195,
      "Posts": 8196,
      "ĠCell": 8197,
      "ectors": 8198,
      "Ġearliest": 8199,
      "éĵ¶è¡Į": 8200,
      "${": 8201,
      "Ġacknow": 8202,
      "Ġknew": 8203,
      "heses": 8204,
      "Ġcontributed": 8205,
      "Ġdecreases": 8206,
      "Ġlaunch": 8207,
      "ano": 8208,
      "Ġment": 8209,
      "Ġhoney": 8210,
      "Ġrecept": 8211,
      "ĠHIV": 8212,
      "ĠDC": 8213,
      "Thanks": 8214,
      "Ġdrinking": 8215,
      "Ġspan": 8216,
      "Ġremote": 8217,
      "Ġnumerical": 8218,
      "Ġmobile": 8219,
      "oral": 8220,
      "Ġaddressing": 8221,
      "OC": 8222,
      "ĠCouncil": 8223,
      "Ġelementary": 8224,
      "Ġneutral": 8225,
      "Ġgenome": 8226,
      "Ġmultiplied": 8227,
      "Ċĉĉĉĉ": 8228,
      "fit": 8229,
      "sis": 8230,
      "Ġintric": 8231,
      "ressions": 8232,
      "ishment": 8233,
      "Ġphosph": 8234,
      "Ġboost": 8235,
      "author": 8236,
      "Ġadapted": 8237,
      "ĠProfessor": 8238,
      "Ġingred": 8239,
      "ĠIP": 8240,
      "Ġwear": 8241,
      "unit": 8242,
      "ĠNatural": 8243,
      "Ġperception": 8244,
      "linear": 8245,
      "Ġtrends": 8246,
      "Ġyounger": 8247,
      "Ġdeclared": 8248,
      "UM": 8249,
      "Ġsen": 8250,
      "Ġped": 8251,
      "user": 8252,
      "Ġreprodu": 8253,
      "Ġentered": 8254,
      "ĠMont": 8255,
      "Ĥ¹": 8256,
      "Ġoutbreak": 8257,
      "lectric": 8258,
      "Ġsupplement": 8259,
      "ascular": 8260,
      "Ġlaboratory": 8261,
      "Ġvegetation": 8262,
      "Ġinnovation": 8263,
      "ĠSte": 8264,
      "Ġ65": 8265,
      "charge": 8266,
      "Ġagreement": 8267,
      "Ġgalaxy": 8268,
      "ĠĊĠĠĠ": 8269,
      "allow": 8270,
      "apor": 8271,
      "Ġfiles": 8272,
      "Ġinstitution": 8273,
      "Ã¼": 8274,
      "Ġsequences": 8275,
      "idents": 8276,
      "advant": 8277,
      "Ġconfig": 8278,
      "Ġbasically": 8279,
      "Ġbalanced": 8280,
      "otton": 8281,
      "ĠFlor": 8282,
      "Ġadvent": 8283,
      "Ġencouraged": 8284,
      "ĠModel": 8285,
      "ĠSmith": 8286,
      "just": 8287,
      "phone": 8288,
      "Ġrac": 8289,
      "Ġdrink": 8290,
      "Ġaccessible": 8291,
      "Ġrobot": 8292,
      "Ġgrades": 8293,
      "Ġsav": 8294,
      "Ġdates": 8295,
      "Ġjump": 8296,
      "Ġknows": 8297,
      "Ġorganism": 8298,
      "Ġpartner": 8299,
      "ĠGoogle": 8300,
      "Ġsimultaneously": 8301,
      "Add": 8302,
      "va": 8303,
      "Ġ39": 8304,
      "Ġarts": 8305,
      "Total": 8306,
      "åĨ": 8307,
      "Ġblow": 8308,
      "rooms": 8309,
      "MS": 8310,
      "total": 8311,
      "Ġnone": 8312,
      "Ġwhom": 8313,
      "Ġintegr": 8314,
      "^{-": 8315,
      "band": 8316,
      "Ġsought": 8317,
      "Ġthereby": 8318,
      "eft": 8319,
      "Ġreflection": 8320,
      "Ġcombine": 8321,
      "Ġbias": 8322,
      "Ġdiscussions": 8323,
      "ĠKingdom": 8324,
      "Ġfairly": 8325,
      "Dis": 8326,
      "ĠCle": 8327,
      "Ġcrust": 8328,
      "empty": 8329,
      "andom": 8330,
      "Ġconstructor": 8331,
      "Ġburning": 8332,
      "ĠMill": 8333,
      "ĠBus": 8334,
      "ĠBattle": 8335,
      "Ġbridge": 8336,
      "Ġdogs": 8337,
      "ĠCarolina": 8338,
      "ĠView": 8339,
      "Ġrestrict": 8340,
      "Ġions": 8341,
      "stack": 8342,
      "ĠGold": 8343,
      "ĠStrateg": 8344,
      "Ġregul": 8345,
      "valid": 8346,
      "clusions": 8347,
      "Ġinnovative": 8348,
      "Finally": 8349,
      "SI": 8350,
      "heast": 8351,
      "Ġbear": 8352,
      "Ġwasn": 8353,
      "Ġafford": 8354,
      "Ġscene": 8355,
      "ĠâĨĴ": 8356,
      "Ġfaith": 8357,
      "'d": 8358,
      "Ġlaunched": 8359,
      "elcome": 8360,
      "Ġweights": 8361,
      "Ġtravels": 8362,
      "ĠScot": 8363,
      "Ġft": 8364,
      "Ġdx": 8365,
      "Ġlie": 8366,
      "ĠString": 8367,
      "Ġmaintenance": 8368,
      "Views": 8369,
      "Date": 8370,
      "Ġ``": 8371,
      "Ġwitness": 8372,
      "Ġscales": 8373,
      "ĠArmy": 8374,
      "Ġnumerator": 8375,
      "*}": 8376,
      "Ġwhatever": 8377,
      "ĠDig": 8378,
      "Ġatmospheric": 8379,
      "oded": 8380,
      "insert": 8381,
      "Ġtechnological": 8382,
      "Ġradical": 8383,
      "Ġemployees": 8384,
      "Ġparticipation": 8385,
      "Ġtub": 8386,
      "Ġvibr": 8387,
      "ĠMove": 8388,
      "erving": 8389,
      "Ġoldest": 8390,
      "Ġquadratic": 8391,
      "Ġvulnerable": 8392,
      "mes": 8393,
      "queue": 8394,
      "Ġshock": 8395,
      "oking": 8396,
      ".|": 8397,
      "Ġmic": 8398,
      "rog": 8399,
      "Ġcontributions": 8400,
      "Ġattempts": 8401,
      "ĠEquations": 8402,
      "ĠHenry": 8403,
      "Ġheap": 8404,
      "Ġmodified": 8405,
      "Ġelected": 8406,
      "ĠOrig": 8407,
      "Ġassumption": 8408,
      "ĠSupreme": 8409,
      "Aut": 8410,
      "Ġcontrad": 8411,
      "Ġsubset": 8412,
      "Item": 8413,
      "Diff": 8414,
      "ĠNor": 8415,
      "peror": 8416,
      "Ġphone": 8417,
      "Ġbatteries": 8418,
      "XXXX": 8419,
      "dx": 8420,
      "vi": 8421,
      "à¤": 8422,
      "ĠPsych": 8423,
      "æ³ķ": 8424,
      "isters": 8425,
      "Ġnin": 8426,
      "aming": 8427,
      "Ġrid": 8428,
      "ĠRob": 8429,
      "ĠIndians": 8430,
      "Ġsymmetry": 8431,
      "Reg": 8432,
      "zym": 8433,
      "Ġcorpor": 8434,
      "Ġappreciate": 8435,
      "});": 8436,
      "Ġcham": 8437,
      "Ġresolution": 8438,
      "Ġsensory": 8439,
      "Ġdeficiency": 8440,
      "wing": 8441,
      "tebr": 8442,
      "Ġspacecraft": 8443,
      "Ġfinished": 8444,
      "Ġbreath": 8445,
      "Eng": 8446,
      "ĠPC": 8447,
      "ĠLast": 8448,
      "ĠExt": 8449,
      "Ġconsisting": 8450,
      "Ġuniversal": 8451,
      "Ġstere": 8452,
      "ĠBrown": 8453,
      "Ġintegrated": 8454,
      "etch": 8455,
      "Ġgiant": 8456,
      "ĠInit": 8457,
      "Ġmeter": 8458,
      "Ġbiom": 8459,
      "Ġneighbor": 8460,
      "ĠStandard": 8461,
      "Ãº": 8462,
      "atus": 8463,
      "roat": 8464,
      "irty": 8465,
      "ĠCy": 8466,
      "Ġinterview": 8467,
      "Ġlosses": 8468,
      "Ġmixture": 8469,
      "Ġlaser": 8470,
      "osc": 8471,
      "ĠMad": 8472,
      "endl": 8473,
      "ĠJer": 8474,
      "everal": 8475,
      "Ġfounded": 8476,
      "Ġcalculus": 8477,
      "Ġviewed": 8478,
      "Ġremainder": 8479,
      "Ġecological": 8480,
      "card": 8481,
      "rus": 8482,
      "iments": 8483,
      "Ġgrams": 8484,
      "Ġordinary": 8485,
      "Ġguidance": 8486,
      "ĠElectric": 8487,
      "ael": 8488,
      "Ġstroke": 8489,
      "Ġ(!": 8490,
      "Ġrice": 8491,
      "duction": 8492,
      "Ġpolice": 8493,
      "Ġboys": 8494,
      "Ġtransmit": 8495,
      "rons": 8496,
      "Ġdense": 8497,
      "ĠMuseum": 8498,
      "ĠLim": 8499,
      "Ġimplies": 8500,
      "Ġwait": 8501,
      "Ġmarginal": 8502,
      "zo": 8503,
      "Ġprecision": 8504,
      "Ġlimitations": 8505,
      "Ġweakness": 8506,
      "ptic": 8507,
      "Ġaffecting": 8508,
      "otypes": 8509,
      "ventions": 8510,
      "Ġmarkets": 8511,
      "Ġconstantly": 8512,
      "Car": 8513,
      "element": 8514,
      "Ġ((": 8515,
      "Ġconfident": 8516,
      "Ġpoetry": 8517,
      "itory": 8518,
      "ĠAdv": 8519,
      "Ġemotion": 8520,
      ")):": 8521,
      "Tra": 8522,
      "æĹ": 8523,
      "search": 8524,
      "Ġmineral": 8525,
      "Ġcircuits": 8526,
      "Ġwalking": 8527,
      "Ġflexible": 8528,
      "Ġangular": 8529,
      "Ġdirected": 8530,
      "ĠStudent": 8531,
      "coln": 8532,
      "Right": 8533,
      "erge": 8534,
      "Ġgrows": 8535,
      "Ġanywhere": 8536,
      "Ġregulations": 8537,
      "Ġkeys": 8538,
      "\",\"": 8539,
      "https": 8540,
      "åĩº": 8541,
      "eteenth": 8542,
      "Ġhospital": 8543,
      "ented": 8544,
      "Ġalter": 8545,
      "Ġusual": 8546,
      "Ġdisk": 8547,
      "Ġinterface": 8548,
      "ashion": 8549,
      "Ġdegrad": 8550,
      "ĠBoard": 8551,
      "power": 8552,
      "onym": 8553,
      "Ġ2001": 8554,
      "scill": 8555,
      "Ġholding": 8556,
      "ÑĢÐ°": 8557,
      "han": 8558,
      "ref": 8559,
      "also": 8560,
      "Ġdut": 8561,
      "ĠBre": 8562,
      "ramid": 8563,
      "Ġcontrovers": 8564,
      "83": 8565,
      "pow": 8566,
      "ĠName": 8567,
      "ĠCalculus": 8568,
      "aration": 8569,
      "Ġadds": 8570,
      "Ġoffering": 8571,
      "inkedList": 8572,
      "94": 8573,
      "run": 8574,
      "Ġcoding": 8575,
      "ĠNaz": 8576,
      "Ġindirect": 8577,
      "Ġautonom": 8578,
      "Ġheavily": 8579,
      "Ġresidents": 8580,
      "æĸ¹": 8581,
      "ĠCP": 8582,
      "Ġpreventing": 8583,
      "ĠCatholic": 8584,
      "ville": 8585,
      "ĠÐ½": 8586,
      "Ġopened": 8587,
      "ĠImp": 8588,
      "Ġrepeat": 8589,
      "remove": 8590,
      "EP": 8591,
      "imeters": 8592,
      "Ġworry": 8593,
      "Ġdiver": 8594,
      "Ġspecialized": 8595,
      "Ġrainfall": 8596,
      "Ġcooling": 8597,
      "Ġcoun": 8598,
      "adder": 8599,
      "arios": 8600,
      "Ġrecurs": 8601,
      "Ġprinted": 8602,
      "Ġnegot": 8603,
      "åı¯": 8604,
      "ĠGlobal": 8605,
      "Ġphenomena": 8606,
      "rane": 8607,
      "ĠTw": 8608,
      "Ġinfluences": 8609,
      "haust": 8610,
      "Ġlifestyle": 8611,
      "Ġdedicated": 8612,
      "pare": 8613,
      "opol": 8614,
      "ĠRail": 8615,
      "Ġtraffic": 8616,
      "strong": 8617,
      "Ġelectrom": 8618,
      "Ġauto": 8619,
      "operation": 8620,
      "ĠWind": 8621,
      "Ġdelve": 8622,
      "Ġclaims": 8623,
      "Ġvarying": 8624,
      "Ġmoisture": 8625,
      "Ġaer": 8626,
      "Ġsod": 8627,
      "Ġchances": 8628,
      "ĠWithout": 8629,
      "ĠSuppose": 8630,
      "Text": 8631,
      "urric": 8632,
      "ĠVer": 8633,
      "Ġstrongly": 8634,
      "=-": 8635,
      "mas": 8636,
      "edy": 8637,
      "Ġtransmitted": 8638,
      "Ġmedian": 8639,
      "Ġshaping": 8640,
      "AG": 8641,
      "Ne": 8642,
      "Ġboy": 8643,
      "Ġdice": 8644,
      "ĠCrit": 8645,
      "Ġglucose": 8646,
      "Ġ55": 8647,
      "Ġexamining": 8648,
      "Ġboat": 8649,
      "Ġindicated": 8650,
      "ULL": 8651,
      "Ð·": 8652,
      "ĠOx": 8653,
      "Ġrequest": 8654,
      "Ġlikelihood": 8655,
      "93": 8656,
      "mid": 8657,
      "orig": 8658,
      "Ġflying": 8659,
      "etary": 8660,
      "ĠTom": 8661,
      "Ġcompl": 8662,
      "ĠBank": 8663,
      "example": 8664,
      "Ġcoins": 8665,
      "Ġpython": 8666,
      "Ġtack": 8667,
      "esides": 8668,
      "ĠLiter": 8669,
      "Ġrepet": 8670,
      "Ġopposed": 8671,
      "Ġdiagnosed": 8672,
      "Ġreaching": 8673,
      "Ġspatial": 8674,
      "Ġvalor": 8675,
      "Ġrecall": 8676,
      "ÐµÐ½": 8677,
      "Ġprevention": 8678,
      "Ġhousehold": 8679,
      "Ġpropag": 8680,
      "group": 8681,
      "Ġpip": 8682,
      "ĠAma": 8683,
      "ĠNC": 8684,
      "angered": 8685,
      "Ġsummar": 8686,
      "Ġflux": 8687,
      "irection": 8688,
      "ometer": 8689,
      "Ġbrings": 8690,
      "Ġscientist": 8691,
      "Ġcolony": 8692,
      "Mon": 8693,
      "zero": 8694,
      "Ġpool": 8695,
      "Ġmedication": 8696,
      "ommod": 8697,
      "ilience": 8698,
      "Ġacquired": 8699,
      "amily": 8700,
      "Ġnearest": 8701,
      "Ġwors": 8702,
      "Ġflower": 8703,
      "Chapter": 8704,
      "Ġengineers": 8705,
      "Ġsteam": 8706,
      "Ġemphasis": 8707,
      "Ġbroader": 8708,
      ".[": 8709,
      "Ġhero": 8710,
      "Ġuniversity": 8711,
      "Ġsomewhat": 8712,
      "ĠVal": 8713,
      "Ġscript": 8714,
      "ergart": 8715,
      "Ġmodule": 8716,
      "inson": 8717,
      "Ġfinish": 8718,
      "åĬ": 8719,
      "ĠManagement": 8720,
      "gal": 8721,
      "Ġtip": 8722,
      "Ġrelate": 8723,
      "Ġcenters": 8724,
      "Ġdemands": 8725,
      "Ġseparation": 8726,
      "Ġisolated": 8727,
      "pred": 8728,
      "ugg": 8729,
      "Ġcups": 8730,
      "Ġabuse": 8731,
      "Ġworse": 8732,
      "ĠExcel": 8733,
      "Ġposts": 8734,
      "Ġdistinguish": 8735,
      "Every": 8736,
      "gae": 8737,
      "grim": 8738,
      "å¯": 8739,
      "ìĿ": 8740,
      "lets": 8741,
      "alley": 8742,
      "ĠMedic": 8743,
      "Ġcarrying": 8744,
      "Ġscenario": 8745,
      "dule": 8746,
      "Ġattach": 8747,
      "Ġdetected": 8748,
      "Ġmemor": 8749,
      "Up": 8750,
      "æĿ": 8751,
      "Ġ37": 8752,
      "ĠConn": 8753,
      "Ġmasses": 8754,
      "Ġtrend": 8755,
      "regular": 8756,
      "ĠBab": 8757,
      "ĠIndust": 8758,
      "Ġmaths": 8759,
      "Ġdestruction": 8760,
      "Ġexception": 8761,
      "Ġsuffer": 8762,
      "hop": 8763,
      "Ġtextbook": 8764,
      "May": 8765,
      "Today": 8766,
      "ilation": 8767,
      "Ġ1970": 8768,
      "strial": 8769,
      "Ġlongest": 8770,
      "Ġvaccines": 8771,
      "ĠMo": 8772,
      "Ġranging": 8773,
      "Ġintest": 8774,
      "Ġclothing": 8775,
      "Ġmatrices": 8776,
      "Start": 8777,
      "Ġthreats": 8778,
      "Ġtherap": 8779,
      "Ġthorough": 8780,
      "?:": 8781,
      "æŀ": 8782,
      "quir": 8783,
      "ĠChild": 8784,
      "Ġsoils": 8785,
      "ĠGuide": 8786,
      "Ġinvestigation": 8787,
      "orry": 8788,
      "Ġmood": 8789,
      "ĠWild": 8790,
      "Ġdriven": 8791,
      "Unit": 8792,
      "Ġsuffering": 8793,
      "Ġborder": 8794,
      "ude": 8795,
      "ĠLabor": 8796,
      "ipse": 8797,
      "create": 8798,
      "Ġxy": 8799,
      "Ġrecovery": 8800,
      "Ġ[];": 8801,
      "Ġeffectiveness": 8802,
      "Ġreflected": 8803,
      "Ġcandidate": 8804,
      "Ġadequate": 8805,
      "IR": 8806,
      "ĠFig": 8807,
      "Ġinspired": 8808,
      "ĠGMAT": 8809,
      "Ġsyll": 8810,
      "Ġourselves": 8811,
      "Ġdamaged": 8812,
      "Äģ": 8813,
      "ĠBill": 8814,
      "ĠThough": 8815,
      "Ġfeat": 8816,
      "ĠGeorg": 8817,
      "Ġtherm": 8818,
      "Ġadministration": 8819,
      "Explanation": 8820,
      "BT": 8821,
      "Ġconv": 8822,
      "Ġinflation": 8823,
      "Ġacute": 8824,
      "ĠCompany": 8825,
      "Ġincorrect": 8826,
      "/(": 8827,
      "IP": 8828,
      "Ġban": 8829,
      "ivities": 8830,
      "+\\": 8831,
      "ÏĢ": 8832,
      "esian": 8833,
      "irt": 8834,
      "cientific": 8835,
      "Ġavailability": 8836,
      "Ġnutrient": 8837,
      "People": 8838,
      "?\"": 8839,
      "dt": 8840,
      "}_{": 8841,
      "Ġinch": 8842,
      "blem": 8843,
      "Ġcoron": 8844,
      "Ġconsumers": 8845,
      "Ġphrases": 8846,
      "Ġamazing": 8847,
      "Follow": 8848,
      "Ġsoph": 8849,
      "Ġborrow": 8850,
      "Ġstuff": 8851,
      "zil": 8852,
      "ĠClick": 8853,
      "Any": 8854,
      "ĠFrank": 8855,
      "Ġkinetic": 8856,
      "Ġtank": 8857,
      "Ġcert": 8858,
      "Ġstrain": 8859,
      "eren": 8860,
      "ĠLord": 8861,
      "Ġfunctioning": 8862,
      "Ġbreaking": 8863,
      "Ġchoosing": 8864,
      "Ġexpanded": 8865,
      "Ġmirror": 8866,
      "Ġpaths": 8867,
      "ĠAustralian": 8868,
      "Ġhal": 8869,
      "Ġisot": 8870,
      "Ġ>>": 8871,
      "shaped": 8872,
      "iro": 8873,
      "čĊĠĠĠĠ": 8874,
      "Ġfur": 8875,
      "ĠLar": 8876,
      "Ġovercome": 8877,
      "Ġcone": 8878,
      "Ġpreval": 8879,
      "ĠItalian": 8880,
      "Ġteams": 8881,
      "Ġfalling": 8882,
      "regation": 8883,
      "Calcul": 8884,
      "asses": 8885,
      "Ġassistance": 8886,
      "Ġdetection": 8887,
      "Ġconsumer": 8888,
      "Ġefficiently": 8889,
      "roductive": 8890,
      "cap": 8891,
      "wind": 8892,
      "Ġlymph": 8893,
      "ĠPop": 8894,
      "agers": 8895,
      "Ġdisabilities": 8896,
      "ĠAmong": 8897,
      "Ġspending": 8898,
      "Ġrod": 8899,
      "Ġattend": 8900,
      "ĠArea": 8901,
      "åħ¥": 8902,
      "Ġterritories": 8903,
      "Ġmethane": 8904,
      "ĠIll": 8905,
      "ĠCub": 8906,
      "ĠPan": 8907,
      "ĠFort": 8908,
      "ĠHand": 8909,
      "ĠLake": 8910,
      "Ġoutdo": 8911,
      "Ġprecip": 8912,
      "temp": 8913,
      "MP": 8914,
      "ua": 8915,
      "Ġ38": 8916,
      "Ġratios": 8917,
      "Ġexcessive": 8918,
      "Go": 8919,
      "bered": 8920,
      "Ġimaging": 8921,
      "aph": 8922,
      "nee": 8923,
      "Equal": 8924,
      "uther": 8925,
      "Ġintu": 8926,
      "Ġtract": 8927,
      "ĠFlorida": 8928,
      "gers": 8929,
      "Ġsensor": 8930,
      "Ġcontexts": 8931,
      "Ġplatform": 8932,
      "Ġmosquit": 8933,
      "dr": 8934,
      "Ġyes": 8935,
      "ĠDan": 8936,
      "Ġ''": 8937,
      "Ġlaid": 8938,
      "ĠWorksheet": 8939,
      "Ġearthquake": 8940,
      "Ġmice": 8941,
      "Ġspoken": 8942,
      "Ġ{\\": 8943,
      "Ġcurr": 8944,
      "ĠControl": 8945,
      "Ġsession": 8946,
      "Ġbudget": 8947,
      "ĠTags": 8948,
      "ideo": 8949,
      "ĠTeachers": 8950,
      "Ġrelax": 8951,
      "ĠKids": 8952,
      "ĠResources": 8953,
      "Ġensures": 8954,
      "Ġinstances": 8955,
      "Ġspeeds": 8956,
      "Ġphotograph": 8957,
      "Ġcalcium": 8958,
      "Ġcomplications": 8959,
      "Ġrh": 8960,
      "$$.": 8961,
      "Select": 8962,
      "Ġexponential": 8963,
      "Ġdaughter": 8964,
      "herical": 8965,
      "Ġdecor": 8966,
      "2018": 8967,
      "mathbb": 8968,
      "Ġdecreased": 8969,
      "Ġkilometers": 8970,
      "ĠFoundation": 8971,
      "BN": 8972,
      "non": 8973,
      "Ġton": 8974,
      "esity": 8975,
      "Ġwars": 8976,
      "Ġstead": 8977,
      "ayer": 8978,
      "ĠJose": 8979,
      "Ġdebt": 8980,
      "Output": 8981,
      "Ġphotosynthesis": 8982,
      "inated": 8983,
      "ativity": 8984,
      "ĠScientists": 8985,
      "anda": 8986,
      "aked": 8987,
      "Ġdigest": 8988,
      "Ġhorse": 8989,
      "ĠEnvironmental": 8990,
      "ittle": 8991,
      "Ġpeers": 8992,
      "Ġproductivity": 8993,
      "Ġmotivation": 8994,
      "ographical": 8995,
      "Ġconsiderable": 8996,
      "Ġbeauty": 8997,
      "400": 8998,
      "Ġmes": 8999,
      "ione": 9000,
      "Ġ1980": 9001,
      "ĠArts": 9002,
      "Ġsilver": 9003,
      "ao": 9004,
      "cut": 9005,
      "kin": 9006,
      "}.": 9007,
      "ĠMartin": 9008,
      "300": 9009,
      "SC": 9010,
      "Ġpeas": 9011,
      "Thus": 9012,
      "Ġviral": 9013,
      "ĠÃ©": 9014,
      "Ġofficials": 9015,
      "=(": 9016,
      "FA": 9017,
      "child": 9018,
      "Ġexceed": 9019,
      "Ġembra": 9020,
      "Ġpayment": 9021,
      "instance": 9022,
      "zymes": 9023,
      "ĠYoung": 9024,
      "iki": 9025,
      "Ġbarriers": 9026,
      "ĠProcess": 9027,
      "Even": 9028,
      "ĠDise": 9029,
      "clear": 9030,
      "Ġmonthly": 9031,
      "********************************": 9032,
      "Ġdevelops": 9033,
      "Ġrealize": 9034,
      "Ġsampling": 9035,
      "Ge": 9036,
      "ĠPenn": 9037,
      "Ġextinction": 9038,
      "fficients": 9039,
      "Ġorigins": 9040,
      "solving": 9041,
      "Ġbullying": 9042,
      "Ġtrigger": 9043,
      "UL": 9044,
      "fri": 9045,
      "ç±": 9046,
      "only": 9047,
      "Ġfault": 9048,
      "ĠMag": 9049,
      "ĠBible": 9050,
      "plo": 9051,
      "Ġspelling": 9052,
      "Ġchannel": 9053,
      "EE": 9054,
      "xy": 9055,
      "Ġfurn": 9056,
      "Ġupdate": 9057,
      "Ġ!==": 9058,
      "Ġbee": 9059,
      "ĠÃ¢": 9060,
      "ĠStar": 9061,
      "$$,": 9062,
      "Ġaf": 9063,
      "itus": 9064,
      "ifier": 9065,
      "Through": 9066,
      "Replies": 9067,
      "Ġpreparation": 9068,
      "Ġtelescope": 9069,
      "hol": 9070,
      "mu": 9071,
      "ruption": 9072,
      "Ġnewly": 9073,
      "ymbol": 9074,
      "Ġmagnet": 9075,
      "two": 9076,
      "ĠIce": 9077,
      "Ġblind": 9078,
      "neum": 9079,
      "Ġnorms": 9080,
      "ercury": 9081,
      "ergarten": 9082,
      "SR": 9083,
      "har": 9084,
      "ki": 9085,
      "Ġfiber": 9086,
      "Ġdesire": 9087,
      "Ġdecade": 9088,
      "Ġ99": 9089,
      "Ġdraft": 9090,
      "ĠFranc": 9091,
      "ÑģÑĤ": 9092,
      "}$.": 9093,
      "ĠEnc": 9094,
      "iosity": 9095,
      "rav": 9096,
      "employ": 9097,
      "Ġchose": 9098,
      "Ġquot": 9099,
      "Ġblank": 9100,
      "Ġending": 9101,
      "Ġbreaks": 9102,
      "Ġrectangular": 9103,
      "Ġfold": 9104,
      "aded": 9105,
      "ĠLED": 9106,
      "Ġwilling": 9107,
      "asts": 9108,
      "Ġ2002": 9109,
      "Ġprotecting": 9110,
      "cat": 9111,
      "ĠLo": 9112,
      "Ġdispos": 9113,
      "enger": 9114,
      "Ġprofound": 9115,
      "ita": 9116,
      "Ġtrained": 9117,
      "Ġdefines": 9118,
      "Ġsmell": 9119,
      "Ġperforming": 9120,
      "Ġabsence": 9121,
      "Ġdeaths": 9122,
      "Ġlegislation": 9123,
      "Hist": 9124,
      "born": 9125,
      "Ġasc": 9126,
      "ĠPresent": 9127,
      "eger": 9128,
      "Ġextension": 9129,
      "ĠOnline": 9130,
      "Ġrocket": 9131,
      "Ġtight": 9132,
      "ounce": 9133,
      "Ġhier": 9134,
      "ĠDue": 9135,
      "ĠDutch": 9136,
      "equal": 9137,
      "Mult": 9138,
      "Ġpenc": 9139,
      "Ġnumpy": 9140,
      "Ġ1950": 9141,
      "Ġemployment": 9142,
      "Ġpredictions": 9143,
      "OP": 9144,
      "ĠPur": 9145,
      "orms": 9146,
      "Ġagent": 9147,
      "akespe": 9148,
      "theless": 9149,
      "forward": 9150,
      "è¡¨": 9151,
      "ĠLincoln": 9152,
      "åľ¨": 9153,
      "iar": 9154,
      "oices": 9155,
      "ĠAv": 9156,
      "Ġloan": 9157,
      "cerning": 9158,
      "Ġbehavioral": 9159,
      "Ġaxi": 9160,
      "ĠModern": 9161,
      "Ġgradient": 9162,
      "å®ļ": 9163,
      "Ġsharp": 9164,
      "Ret": 9165,
      "books": 9166,
      "ora": 9167,
      "ĠMach": 9168,
      "Ġobesity": 9169,
      "Ġoverw": 9170,
      "ribution": 9171,
      "Ġagreed": 9172,
      "Ġsensitivity": 9173,
      "Ġsimplify": 9174,
      "Ġscenarios": 9175,
      "Ġfacilitate": 9176,
      "iability": 9177,
      "Ġil": 9178,
      "itical": 9179,
      "ĠDu": 9180,
      "ĠUnlike": 9181,
      "Ġargued": 9182,
      "ĠAmendment": 9183,
      "Ġbottle": 9184,
      ")?": 9185,
      "1000": 9186,
      "Man": 9187,
      "Ġconclusions": 9188,
      "ĠCH": 9189,
      "ĠOpen": 9190,
      "ustain": 9191,
      "bridge": 9192,
      "Ġbacterial": 9193,
      "true": 9194,
      "Ġclosest": 9195,
      "Ġsegments": 9196,
      "Ġdeposits": 9197,
      "ĠDen": 9198,
      "Ġenum": 9199,
      "ailable": 9200,
      "Ġaccounting": 9201,
      "Ġeliminate": 9202,
      "ç±»": 9203,
      "Ġdream": 9204,
      "icians": 9205,
      "ĠSC": 9206,
      "Ġtranslation": 9207,
      "Ġindependently": 9208,
      "ĠFibonacci": 9209,
      "Ġdevelopments": 9210,
      "Ġprobabilities": 9211,
      "Ġcontrols": 9212,
      "Ġencounter": 9213,
      "Ġapplies": 9214,
      "Ġmelting": 9215,
      "giene": 9216,
      "Ġasthma": 9217,
      "cher": 9218,
      "ugh": 9219,
      "hedule": 9220,
      "aland": 9221,
      "args": 9222,
      "Ġstones": 9223,
      "Ġfinds": 9224,
      "Ġâī¤": 9225,
      "Ġunusual": 9226,
      "RA": 9227,
      "Ġwife": 9228,
      "amination": 9229,
      "Ġconductor": 9230,
      "thag": 9231,
      "Ġmanaging": 9232,
      "upiter": 9233,
      "Ġdescribing": 9234,
      "Ġcivilization": 9235,
      "ĠÂłĠÂłĠÂłĠÂł": 9236,
      "Ġoscill": 9237,
      "Ġexhaust": 9238,
      "Ġranges": 9239,
      "ĊĠĠĠĠĠĠĠĠĠĠĠĠ": 9240,
      "Ġ++": 9241,
      "Inf": 9242,
      "Ġproven": 9243,
      "Ġclassification": 9244,
      "ĠIndigenous": 9245,
      "ĠÐ¸": 9246,
      "Ġsimplest": 9247,
      "ĠSystems": 9248,
      "Ġpit": 9249,
      "Ġyields": 9250,
      "ĠViet": 9251,
      "----------": 9252,
      "ĠResp": 9253,
      "expected": 9254,
      "Ġvolcanic": 9255,
      "Ġfifth": 9256,
      "åĢ¼": 9257,
      "Par": 9258,
      "Rel": 9259,
      "}^": 9260,
      "éĹ": 9261,
      "atric": 9262,
      "Ġwat": 9263,
      "Ġchord": 9264,
      "ĠDyn": 9265,
      "Ġwheat": 9266,
      "Ġremind": 9267,
      "issipp": 9268,
      "Ġoccasion": 9269,
      "ĠQuant": 9270,
      "Despite": 9271,
      "Ġproceed": 9272,
      "ĠPot": 9273,
      "Ġnotable": 9274,
      "Ġdisadvant": 9275,
      "Ġconstraints": 9276,
      "ĠWhether": 9277,
      "âĸĪ": 9278,
      "Ġcovering": 9279,
      "through": 9280,
      "rypt": 9281,
      "neg": 9282,
      "Ġattitudes": 9283,
      "Ġconnecting": 9284,
      "template": 9285,
      "è¾ĵ": 9286,
      "Ġremarkable": 9287,
      "Ġchief": 9288,
      "Ġreceiving": 9289,
      "Ġsettlement": 9290,
      "Ġdivisible": 9291,
[...]
